#version: 0.2
h e
Ġ t
Ġ a
Ġ s
e d
Ġt he
i n
Ġ w
Ġ f
r e
n d
Ġ b
o u
Ġ he
e r
Ġ c
in g
Ġ h
Ġ o
Ġ l
i t
a r
Ġt o
a t
Ġa nd
Ġ d
i s
a n
T he
Ġ m
l l
e n
a s
Ġ The
o r
e s
Ġ p
Ġ g
e l
g h
Ġt h
o w
Ġ in
Ġo f
o n
Ġs t
Ġ n
l d
a d
Ġ "
i r
gh t
i d
Ġhe r
e t
Ġs he
o m
Ġ e
a c
Ġw as
u t
r i
i m
it h
s t
a y
l e
a m
Ġs h
Ġ it
Ġ S
o t
Ġb e
Ġ re
Ġthe y
Ġ I
Ġw ith
a l
l y
i c
Ġ r
o o
he r
v er
Ġ H
k ed
Ġl i
k e
v e
Ġth at
Ġs a
el t
Ġf elt
Ġo n
Ġ j
Ġ A
Ġ Ċ
ĠThe y
ou nd
i ll
Ġh is
ou ld
Ġ u
ĠH e
Ġb ut
a ll
en t
! "
Ġh ad
ou t
Ġa s
ĠS he
Ġf or
ar t
he d
in d
e ar
a g
Ġ y
u re
u r
Ġs p
p p
Ġ k
Ġs m
o y
n e
Ġthe ir
Ġw h
an t
o s
Ġw e
Ġy ou
i l
e nd
Ġl a
e c
Ġ L
Ġl o
u n
Ġp l
Ġn ot
u st
Ġsa id
ri end
Ġw or
Ġh im
Ġt re
o re
Ġh a
Ġf riend
a in
er ed
Ġhe art
id e
ar d
Ġc l
on e
e e
i ght
Ġ W
Ġf e
n ed
l ow
Ġc h
ĠI t
f t
Ġn e
Ġa l
ar k
? "
Ġ M
r ou
o p
Ġa n
Ġd ay
Ġla u
Ġ v
Ġc ould
c e
ac h
r a
' s
Ġf ound
g et
c h
er s
re at
ver y
on g
e m
Ġa b
r om
i g
ir l
Ġst or
Ġli ke
i a
, "
Ġ B
Ġa t
get her
Ġthe m
Ġs o
Ġl oo
om e
i es
re am
Ġ is
an g
Ġe x
oo d
i f
ri ght
ou ght
v ed
u s
Ġg irl
Ġt r
Ġfriend s
Ġc o
es s
Ġ E
Ġa r
ac e
Ġfe el
Ġr o
ac k
Ġd ream
t o
ar ed
es t
k ing
Ġth ought
d en
Ġf ill
. "
Ġwe re
Ġw ant
Ġab out
Ġc an
Ġu p
Ġj oy
Ġd o
u l
as t
Ġb right
Ġin to
ĠB ut
Ġst r
h ing
Ġst ar
Ġb oy
l p
Ġ T
am e
n ow
Ġl e
nd er
Ġm a
Ġsm il
Ġhe lp
h at
Ġw at
Ġw ould
u el
Ġli ght
Ġc a
ou r
w ay
e o
Ġfill ed
Ġto gether
Ġe very
Ġg r
Ġb ack
Ġf ind
ic e
ĠM ia
Ġloo ked
ĠL eo
Ġre al
Ġf rom
he n
l ed
i on
Ġto o
s ide
ad e
Ġ out
ĠI n
c k
Ġs ee
Ġe y
A s
as ure
Ġj ust
is t
O ne
Ġtre asure
Ġo ld
u ll
Ġs k
i z
u d
Ġsm all
t her
Ġey es
Ġw is
p l
Ġd an
Ġa g
Ġw a
Ġsa w
Ġsmil ed
Ġth is
Ġo ther
Ġa ll
am ed
Ġfeel ing
Ġon e
rou gh
Ġbe g
ag ic
Ġas ked
Ġb r
Ġm ade
Ġha pp
le x
Ġf low
Ġs un
os e
Ġl ear
pp ed
Ġm e
Ġm agic
ou s
Ġt ur
Ġth rough
Ġre m
Ġa d
Ġar ound
Ġwor ld
Ġn amed
Ġwant ed
ĠA lex
om et
Ġc reat
Ġlo st
im e
Ġpl ay
Ġ K
Ġ J
q u
ang e
ĠW ith
i ly
Ġn o
Ġf l
f e
w n
t er
Ġbeg an
i p
en ed
Ġn ight
Ġb ig
Ġstor ies
Ġsk y
Ġg o
Ġreal iz
Ġm an
Ġstar s
Ġk now
Ġd ec
c hed
ĠK im
Ġb y
Ġh op
u m
t ed
Ġs w
Ġd ark
Ġt ime
d s
ee p
i le
ow n
am uel
ag e
e p
v ent
Ġs omet
Ġu nder
v en
l or
he re
Ġex c
ght er
Ġdream s
Y ou
Ġw ar
Ġc r
ud den
Ġlear ned
oo k
Ġe ach
W hat
Ġt a
a v
ĠS amuel
it y
udden ly
Ġdan c
Ġco lor
Ġit s
Ġwh o
Ġ if
vent ure
t le
o nd
e ll
Ġsh ared
Ġd eep
at her
f ul
Ġad venture
Ġw ill
t h
Ġa ir
Ġlo ve
Ġne w
ĠA s
Ġlau ghter
id ed
i ld
Ġc he
Ġrealiz ed
re n
Ġm om
Ġg i
al ked
g hed
Ġlau ghed
Ġag ain
Ġm ore
is p
s ed
Ġm y
em b
n ess
Ġmom ent
Ġsh a
Ġ One
Ġf o
Ġdec ided
Ġwh isp
ic k
Ġwar m
Ġsp ark
ad ow
el f
Ġm o
Ġsomet hing
Ġ qu
ne w
Ġc on
ing s
Ġs c
re t
Ġh id
u e
Ġ R
Ġa re
Ġs e
Ġp e
Ġso ft
a ut
Ġo p
r o
Ġsh in
Ġk new
Ġtoo k
Ġb l
Ġa m
it ed
Ġdanc ed
Ġf un
Ġe ven
Ġtre e
Ġf ore
op le
Ġd own
a nd
Ġh ome
Ġu n
Ġcl os
Ġbe aut
Ġrem emb
s e
Ġ ke
Ġwh at
Ġa way
ard en
Ġw alked
Ġg arden
re w
ac hed
Ġsh adow
Ġex pl
o ke
Ġre ad
Ġo ver
h is
Ġl it
Ġg low
Ġb ra
ĠE ach
Ġs ad
Ġhop e
g e
Ġflow ers
Ġb el
i e
Ġw here
s elf
ri ed
o in
Ġsh ow
Ġha nd
Ġth an
Ġh ow
Ġw ind
Ġs ur
ot her
Ġtur ned
p t
Ġv ill
Ġw ay
ac ed
Ġstr ange
Ġf ear
n ing
at h
it a
Ġl et
in k
Ġd id
Ġb u
Ġs at
t ing
Ġ C
Ġst ood
Ġv o
ĠT o
Ġs ec
Ġsh out
Ġhid den
Ġa pp
Ġt w
W ith
Ġin side
Ġha ve
Ġpl an
Ġb o
ft er
all y
ĠR ita
Ġma p
Ġsec ret
Ġ P
Ġthe n
ar ing
Ġbe c
Ġf ull
t ur
Ġp ain
Ġ F
Ġshout ed
p ed
Ġwat er
Ġpl ace
Ġal i
Ġhapp y
Ġthe re
h ip
Ġstr ong
Ġlo ved
m ed
Ġre tur
Ġ en
Ġw r
u ri
Ġc ame
Ġknow ing
way s
b b
Ġbra ve
Ġpe ople
at e
Ġcolor s
Ġto ld
Ġne ed
Ġstor y
Ġal ways
Ġlit tle
ĠL ily
Ġla nd
Ġfore st
is h
Ġvo ice
Ġs et
Ġst e
b r
Ġother s
v es
Ġma ke
I n
Ġf i
Ġw hen
Ġ im
Ġtre es
' t
u g
c o
Ġo wn
Ġk ind
Ġ ri
Ġli fe
Ġsha re
Ġwhisp ered
re e
Ġn ow
Ġevery one
Ġcreat ure
is e
Ġg ather
Ġwat ched
ĠS uddenly
Ġre ached
ou d
Ġl ong
Ġc ity
Ġh ard
Ġdo or
is ed
Ġal one
el y
Ġb ir
Ġbeaut if
ĠA l
d ed
b le
Ġh o
Ġhe ld
et er
Ġop ened
Ġbeautif ul
as s
c t
Ġyou r
Ġshadow s
l ing
Ġl ist
Ġd is
ll ow
le w
W e
Ġunder st
it e
m an
Ġt e
a k
Ġb ot
Ġch ild
Ġlau gh
r y
at ed
Ġro ck
i ed
ar ia
en ce
em or
Ġm ust
Ġca ve
e an
he s
Ġvill age
Ġrememb ered
Ġt all
Ġst one
os s
Ġc om
Ġc all
Ġp ow
Ġhe ard
ch ing
Ġfriends hip
ĠTo gether
Ġb reat
Ġd r
ĠAl ice
Ġr an
Ġp ic
ver ed
Ġt al
Ġp rom
Ġread y
Ġtr ue
i et
ĠM aria
ic ed
Ġan y
Ġsm ile
Ġb et
re s
p r
Ġf a
em ent
Ġre pl
Ġg reat
ĠJ ose
Ġm emor
uri ous
Ġle ad
Ġro om
Ġno d
en a
Ġpow er
Ġsh aring
Ġof f
Ġs ear
Ġp ath
Ġj oin
Ġgi ant
Ġg rew
in ally
Ġp art
Ġb ook
at ion
Ġs ome
Ġbreat h
w ard
W hen
ĠJ ean
i al
Ġstor m
Ġs now
v ing
Ġplay ed
Ġste pped
Ġgo ld
Ġnod ded
Ġf ly
Ġo r
Ġc ome
T his
Ġg ra
Ġf am
Ġche ered
o on
o ve
Ġbot h
n g
Ġbec ame
rou d
Ġne ver
Ġexc it
ĠL ena
Ġe m
Ġsur pr
i gh
Ġsp oke
Ġfo llow
Ġp roud
ou n
L et
Ġe nd
Ġle av
Ġp r
Ġg u
Ġsp ec
Ġt ra
Ġon ly
Ġspec ial
an k
Ġyou ng
Ġwh ile
Ġb est
Ġnot iced
Ġst art
im b
m man
mman uel
Ġgather ed
Ġrepl ied
t en
l es
Ġp ull
Ġto wn
Ġexcit ement
Ġwor ds
om an
Ġr ain
Ġbel ie
Ġw ond
ou ds
Ġw oman
ĠA n
Ġgr ow
Ġf ace
Ġs ound
h ind
Ġexpl ore
Ġw o
Ġf ish
Ġwarm th
Ġf lew
a z
W h
Ġcl imb
in ess
Ġc our
x t
er ing
t hing
Ġretur ned
ĠE mmanuel
Ġgr ound
Ġwis h
Ġp ast
Ġclos er
im m
B ut
Ġhe av
ec t
ch o
Ġu s
n y
ac es
Ġbe hind
Ġdis co
Ġst ep
Ġman y
in y
Ġcl ouds
Ġbir d
Ġg l
an ce
Ġsoft ly
ĠH is
im es
Ġspark led
Ġbr ing
Ġsee med
ear ed
Ġri ver
oo l
Ġc le
Ġt ell
f ore
Ġc ar
ug g
Ġf ir
Ġheart s
ĠH er
Ġsh ip
Ġe cho
Ġst ill
ĠW hen
Ġ D
Ġexc ited
Ġm et
us h
in ed
Ġca re
Ġta ke
ag on
b ot
Ġch ange
Ġflow er
Ġj our
Ġt iny
re ed
it ing
us hed
s o
al s
b e
ĠE very
Ġfe ll
a p
Ġdr agon
e ad
Ġfl o
The y
Ġfam ily
Ġcall ed
Ġheav y
Ġro bot
Ġlist ened
Ġim ag
ne y
Ġr aced
Ġjour ney
Ġwor ked
Ġc at
Ġ O
Ġj um
Ġqu iet
Ġbe ing
Ġab ove
S uddenly
Ġwor k
Ġne xt
Ġm ind
Ġon ce
Ġd if
Ġfir st
fe ren
Ġal so
in e
ir it
Ġdif feren
Ġloo king
Ġr a
a ve
Ġprom ised
s p
Ġcour age
or t
Ġwis e
Ġsp irit
Ġg ent
Ġapp eared
Ġin v
Ġsecret s
st ead
Ġmagic al
Ġali ve
Ġmemor ies
Ġbe fore
Ġrem ind
rou ght
Ġbo x
Ġwo nder
Ġa c
o om
Ġn ear
Ġk ing
Ġhim self
Ġb rought
Ġl oud
Ġth ings
Ġ ide
as sed
ĠIn side
in king
k s
Ġke ep
Ġg ood
Ġher self
Ġso on
Ġglow ing
i v
Ġtr y
Ġdan ce
Ġhe re
H e
t ain
Ġm is
Ġse a
Ġp assed
Ġlaugh ing
Ġsp ot
Ġshin y
low ly
ay be
Ġh igh
Ġle ft
Ġshow ed
ĠAn ne
Ġc ast
Ġwond ered
Ġf r
Ġhand s
Ġho ld
Ġhapp iness
Ġfa ir
Ġs il
Ġstart ed
l and
Ġf ree
Ġshin ing
Ġkind ness
ous e
ĠP eter
e et
Ġke y
Ġsc ared
Ġw all
Ġ N
Ġali en
ir ed
Ġadventure s
Ġg ame
ĠT his
ut h
Ġunderst ood
Ġcolor ful
A fter
Ġt ri
Ġout side
Ġ our
Ġw ide
Ġlet ter
v el
Ġl ast
Ġth inking
Ġd in
Ġk n
d om
b y
rou p
Ġg roup
Ġop en
us ed
Ġpic ked
Ġte am
Ġdifferen t
oun tain
Ġsw eet
Ġclimb ed
a ur
u ck
Ġmo on
ot e
Ġf ar
Ġtr ust
os aur
Ġtr uth
Ġf ad
Ġw ood
Ġli ved
Ġwr ote
Ġma king
Ġp ark
Ġf ig
e br
w l
ct ion
ac ing
Ġfig ure
Ġw in
Ġis land
l a
Wh y
ear s
Ġth ink
ĠW hat
Ġwe ight
o st
o ck
Ġcon ne
Ġpl ant
Ġfollow ed
Ġ G
Ġb all
Ġh ill
Ġt ou
Ġo wl
el ebr
Ġs ong
Ġgra nd
Ġdisco vered
ren g
Ġam az
Ġc elebr
Ġcon t
reng th
as h
Ġw ent
Ġtal es
Ġdin osaur
Ġher o
im ed
Ġst rength
Ġjum ped
re ad
l ight
Ġc urious
Ġleav es
d ay
Ġbl oom
I t
id s
Ġar t
Ġbet ter
Ġbe en
Ġwa ves
Ġl ed
Ġbu ild
Ġd ra
Ġm us
um b
Ġco ld
Ġday s
ull y
Ġcreature s
bb it
Ġr un
Ġbeaut y
u ght
Ġqu ick
or n
Ġwa iting
k en
Ġs u
Ġbright er
o l
Ġevery thing
z e
Ġra bbit
Ġp ir
e en
Ġs ang
Ġf ast
ig g
et s
Ġmus ic
Ġan im
Ġchild ren
Ġwis hed
Ġsh imm
Ġp i
Ġtur tle
Ġch ang
Ġclos ed
ay s
Ġmo ved
il t
Ġf ood
Ġk ids
Ġcr y
is hed
Ġe ver
Ġcreat e
f ully
Ġof ten
Ġm ountain
Ġto y
Ġb en
Ġtw ink
m b
Ġd ust
Ġf in
Ġfo x
Ġecho ed
Ġche st
Ġtra vel
Ġneed ed
Ġv is
Ġapp ro
Ġsad ness
Ġdeep er
Ġfly ing
Ġd ist
Ġsurpr ise
Ġa fter
Ġhelp ed
la imed
Ġsh one
Ġth ose
Ġanim als
Ġcon f
Ġem pt
Ġunderst and
Ġexc laimed
Ġl ay
ir r
T h
Ġwa nd
Ġdream ed
Ġsh ould
r ound
Ġg as
ill y
Ġb ond
Ġexpl or
Ġsp ace
T o
ri ved
Ġp res
Ġrememb er
Ġag reed
Ġfor g
Ġplay ing
Ġfad ed
r oss
ou gh
an s
Ġcast le
Ġto ward
Ġretur n
Ġs qu
st er
Ġsw am
Ġlight s
Ġs ing
id d
un g
Ġfun ny
t ers
i x
Ġp oin
Ġs ig
Ġc re
Ġl on
Ġp ro
Ġland ed
Ġsa il
e ath
Ġglow ed
ain ed
Ġwood s
Ġch o
Ġdark ness
Ġfore ver
Ġtreasure s
Ġstrong er
r ow
Ġm other
Ġappro ached
on es
Ġ ent
F inally
ar y
Ġf all
Ġflo ated
Ġan other
Ġfair y
ce an
Ġim p
Ġgas ped
Ġpi ec
Ġst ay
f f
Ġt ight
am es
Ġwat ching
Ġsear ched
on s
Ġhe ad
Ġbo at
Ġsa nd
at er
Ġchang ed
Ġf ather
Ġloo k
Ġcl ose
Ġwall s
Y es
Ġspot ted
in s
Ġfl ick
Ġbl ue
Ġo cean
u is
Ġs it
Ġtur n
Ġr acing
umb led
Ġt ried
i ble
Ġsome one
Ġse en
Ġs en
as hed
Ġide a
ag er
c ked
Ġs illy
L ook
Ġst o
Ġd es
Ġfor ward
Ġm ix
ĠJ ust
u ed
a re
eter m
Ġempt y
Ġhop ing
Ġspark ling
e ople
e y
Ġs ay
s w
Ġst ones
Ġbright ly
Ġforg ot
Ġtry ing
Ġan sw
Ġsomet imes
Ġcr ow
. .
Ġl ess
Ġpain ted
Ġh on
Ġbu ilt
C an
ft ed
Ġhe ar
g ed
Ġvill ag
Ġ U
Ġst re
as e
Ġmis s
Ġam ong
ell ed
T hat
Ġimag ined
Ġshe ll
Ġs lowly
Ġwand ered
w here
Ġm at
irr or
ĠL uis
Ġ right
Ġjoin ed
Ġwa ved
Ġar rived
c i
Ġs l
Ġvillag ers
Ġs ide
Th ank
Ġpull ed
Ġcry st
Ġh ouse
Ġwith in
A t
Ġdo g
Ġking dom
Ġm irror
Ġac ross
Ġp er
f or
Ġf aced
at ing
iv al
Ġfi re
Ġg igg
Ġm or
Ġlon ely
Ġs ch
M aybe
Ġquick ly
Ġgent le
Ġsear ching
om ed
g er
Ġy et
k es
a pp
Ġp a
Ġre ve
Ġwind ow
ac t
Ġhelp ing
Ġsw irl
Ġh ur
os ity
Ġwhisp ers
Ġreve al
Ġsch ool
m s
Ġgi ft
Ġleav ing
Ġc ried
ĠW e
ĠS t
ter f
Ġsa fe
ĠEvery one
Ġre ach
Ġgr ass
Ġagain st
Ġmor ning
Ġtri ck
idd le
Ġlead er
Ġm ight
Ġca nd
est ival
Ġb ree
Ġle ave
Ġr ace
Ġb us
Ġfi el
Ġsto pped
an c
Ġbut terf
Ġg ames
Ġsha p
Ġco vered
Ġc rew
Ġeven ing
Ġfear s
Ġp ushed
Ġd i
Ġbel ong
Ġg et
Ġcl oud
ĠThe ir
Ġdra w
Ġwa ve
ion s
Ġth ick
u ch
h ost
Ġsh ook
Ġcrow d
ll ed
Ġup on
ĠC urious
Ġw ings
Ġr ushed
j oy
Ġkn ight
Ġ ed
M ia
Ġg ot
Ġs n
Ġg host
Ġgi ve
ĠO n
re en
Ġbree ze
Ġm uch
Ġ You
Ġcreat ed
Ġlear n
Ġtw o
Ġben eath
ĠP eople
Ġse ed
ĠThe re
en ing
Ġconne ction
Ġlet ters
Ġin stead
Ġpain t
Ġgent ly
Ġf ro
Ġg one
el c
Ġwith out
Ġ Y
Ġbr other
Ġbelie ved
Ġpiec e
Ġf ight
Ġf estival
Ġke pt
Ġat t
i ous
Ġsmil ing
all en
Ġr ush
Ġbelie ve
Ġnear by
in ation
Ġst umbled
O n
Ġdanc ing
Ġch allen
Ġimp ort
ĠIn stead
Ġed ge
Ġu sed
Ġbel ow
Ġtwink led
Ġtw ist
Ġsen se
ic es
Ġwe e
Ġsp read
Ġen joy
Ġnot e
Ġshin e
Ġwor ried
est er
uri osity
pp ing
Ġal ong
Ġme et
i b
ĠS oon
at es
Ġrealiz ing
Ġdream ing
Ġsp l
a ked
in es
Ġsil ence
Ġgrand m
Ġt alked
Ġsurpr ised
Ġsh ore
Ġd a
Ġa w
ang er
Ġsun ny
Ġs y
Ġj ester
Ġcryst al
Ġw al
Ġdust y
us e
Ġwis hes
Ġsound s
Ġf inally
Ġexplore r
e w
Ġpain ting
el s
Ġth ri
Ġp u
Ġthan ked
Ġpir ate
Ġc ool
D ays
Ġf aces
bb ed
J ust
Ġd eterm
o ken
Ġgold en
x c
ĠA nd
Ġwr ong
e ver
z z
I f
Ġpe ace
p er
Ġsp r
Ġsmil es
Ġb ur
Ġto p
Ġc orn
Ġany thing
t ure
Ġcom p
Ġd e
Ġs or
Ġcont in
Ġsp ent
es ide
Ġsee k
Ġsur round
art h
Ġthought s
Ġfl ash
sp ired
ec ted
Ġgr in
Ġta le
Ġmoment s
ĠW h
ut ure
g y
Ġhold ing
Ġf uture
Ġ very
ĠW ould
Ġclos ely
v ous
Ġpl aces
i pped
Ġmemor y
t s
Ġhon est
Ġide as
Ġca ught
Ġbir ds
Ġgrandm other
Ġp ond
or k
t ered
est ed
b ow
Ġbe ach
Ġa f
Ġqu est
Ġs ist
Ġsh o
Ġimport ant
ar s
Ġfind ing
Ġcand y
our s
Ġgra bbed
w een
mb ol
Ġsy mbol
Ġm on
Ġr ed
Ġh as
Ġfill ing
The n
al m
ĠA fter
Ġamaz ing
p le
Ġpr in
Ġevery where
Ġs ugg
ci ent
Ġr iddle
Ġlong er
Ġcare fully
ĠS o
ou b
Ġn er
Ġrock s
Ġsong s
Ġro lled
ugg ed
Ġsit ting
Ġg em
Ġcreat ing
Ġst and
Ġe ager
he ad
Ġsh i
a king
Ġdid n
w ork
Ġan cient
S he
Ġtr ans
Ġplan et
Ġ el
Ġw ild
Ġh ung
Ġca pt
D o
Ġag o
Ġcl ock
Ġbr oken
Ġrain bow
ĠT h
Ġsugg ested
ant ed
ĠA t
ĠF rom
Ġcar ry
Ġfa il
Ġg ave
Ġtou ched
Ġre f
Ġm ist
Ġner vous
ĠY et
Ġamaz ed
Ġbet ween
all ey
Ġpic ture
Ġun t
Ġpoin ted
Ġtrans for
ĠN ow
re l
Ġy ear
Ġj ew
Ġp re
Ġtight ly
Ġfeel s
Ġd ri
Ġk ite
Ġcl a
Ġinv is
Ġd oub
Ġbe ar
To gether
Ġlight er
Ġunderstand ing
Ġcle ver
Ġgu ard
ac ked
Ġa ct
Ġy elled
F rom
Ġbloom ed
av or
a ke
Ġme an
Ġr u
Ġsist er
Ġpart y
Ġsurround ed
Ġcorn er
Ġbr id
id ing
Ġh at
ir t
u it
Ġn ame
Ġent ered
ĠS lowly
I s
ra id
Ġexplor ed
Ġcom es
xc ited
ir rel
Ġcontin ued
Ġc ook
Ġtoy s
Ġaf raid
Ġfe ather
Ġinv ited
Ġmo ve
Ġforgot ten
Ġso ared
Ġshimm ered
Ġg reen
Ġch ance
Ġb lew
Ġl oss
Ġv alley
Ġwr ite
Ġc ra
Ġf ade
Ġsqu irrel
ĠU nder
Ġs ame
Ġno ise
Ġd anger
f ect
Ġrun ning
es c
Ġun i
Ġdist ance
Ġexpl ained
Ġb re
Ġh ig
ĠI f
Ġthri ll
Ġknow n
Ġa head
ĠS h
Ġfin ished
Ġp o
er gy
Ġlist en
an y
r ay
Ġli ves
Ġhur t
Ġen ergy
ir c
a use
Ġt ears
Ġfriend ly
l ies
Ġp ers
Ġb eside
Ġremind er
Ġta ught
Ġbrid ge
ie f
ĠF inally
Ġre sp
Q u
Ġunt il
Ġd on
Ġgo ing
Ġfi x
Ġreveal ing
Ġmis sed
Ġpr ot
ate ful
Ġshimm ering
Ġfr uit
ĠA m
Ġt imes
Ġsp e
Ġst ared
Ġem br
Ġm ess
Ġtra pped
Ġplan ned
Ġb it
Ġw ra
Ġinvis ible
Ġwat ch
Ġbutterf ly
Ġfiel d
ot s
Ġp ass
Ġf avor
Ġstre ets
Ġper fect
Ġshow ing
Ġteam work
Ġcho ice
Ġto w
Ġch a
Ġsig n
or s
Ġfro g
Ġst op
ĠThe n
Ġseed s
Ġch ill
Ġtal k
s it
Ġto day
Ġref le
Ġhe sit
d y
Ġbu bb
Ġw oke
Ġso l
Ġla ke
Ġp ap
Ġk it
Ġfor get
Ġfavor ite
Ġh ours
' m
Ġball oon
by e
Ġconf used
Ġmountain s
Ġwis dom
i re
Ġcat ch
Ġm ark
Ġon to
Ġg az
Ġqu een
Ġsig hed
Ġatt ic
Ġu se
l s
Ġpir ates
ĠW as
um m
Ġl ow
ar ked
Ġvis it
Ġr ust
Ġbl ank
Ġgigg led
Ġremind ed
Ġjew els
ĠT hat
Ġw ore
Ġli ft
Ġp ut
Ġless on
Ġgood bye
Ġmat ter
ent s
Ġt ired
Ġj o
Ġnot hing
Ġexplor ing
Ġs uddenly
Ġgr ateful
Ġprom ise
Ġbr oke
N ow
Ġwond ers
n ot
Ġplant s
Ġ Qu
Ġhig her
Ġm ach
Ġwee ks
ĠB right
Ġch as
Ġsp aces
Ġen ch
Ġl ar
Ġtransfor med
H ow
Ġcle ar
Ġen ough
Ġstr ugg
Ġfe et
Ġad m
er n
Ġbus y
o ld
Ġli br
Ġs im
Ġbet ray
u ff
Ġme ant
Ġpers on
Ġpl aced
v ely
Ġfi er
Ġr ose
Ġb at
el p
Ġre c
i ke
k ay
Ġjum p
l ess
Ġcan not
Ġtou ch
p ected
Ġp ur
i er
Ġtell ing
Ġh ugged
Ġw elc
Ġst ud
Ġdec l
ri es
Ġmo st
Ġta ble
Ġc uriosity
Ġsa ve
Ġpr act
Ġthe se
ĠTo day
on t
Ġpre p
Ġc irc
Ġre ally
i ence
Ġdecl ared
Ġflick ered
Ġbra very
Ġpap er
Ġsun light
Ġrock et
Ġench anted
Ġcom ing
s ure
Ġsing ing
u p
Ġc alm
j ect
Ġst uck
Ġansw er
Ġalien s
Ġwor king
g es
Ġu r
Ġspaces hip
ib il
Ġgu ide
Ġlibr ary
Ġbec ause
el ing
Ġha un
Ġv an
Ġ esc
ic h
Ġre st
Ġf reed
Ġhapp ened
as k
Ġremind ing
Ġcr own
Ġar ms
ack s
Ġmy ster
anc hes
Ġte ac
ar m
Ġecho ing
res s
Ġdisco ver
ĠH ow
Ġbur st
is ing
Ġdoub t
Ġworld s
Ġwe ll
Ġt ast
Ġsail ed
Ġmiss ion
Ġbr anches
el ves
Ġp ret
u ghter
Ġsm ell
Ġsay ing
Ġhesit ated
omet imes
Ġco ins
Ġco ll
ic ked
Ġpower ful
or y
at ure
.. .
ad it
Ġpres sed
Ġcelebr ated
ant ern
In side
ag ed
in ning
Ġsur f
Ġcl ass
ĠM y
um p
Ġprot ect
Ġh it
op e
igh b
Ġgl imm
Ġh ide
ap e
Ġany one
Ġs ou
Ġdra wn
Ġy ears
Ġhid ing
O h
Ġl antern
Ġb ag
W here
Ġbre ak
Ġgrow ing
Ġtal king
Ġoff ered
Ġtw irl
Ġshap e
Ġcl u
ak es
Ġwor ry
Ġe arth
Ġp our
Ġne ighb
Ġche er
Ġsear ch
Ġsh y
ven ge
Ġcapt ain
Ġcar ried
ag es
Ġta ken
Ġbook s
N o
i ve
Ġdist ant
is es
s elves
Ġdo es
Ġse as
u ly
Ġchallen ge
n oon
Ġafter noon
Ġf ought
Ġon es
ver se
Ġdinosaur s
Ġcre pt
Ġhe al
Ġfo g
Ġwhisp er
e eling
c ted
Ġteac her
Ġc ent
Ġtravel ed
Ġsil ver
Ġprin ce
Ġwin ter
Ġan ger
ĠM any
Ġtr adit
Ġshap es
Ġpa used
ĠE xcited
Ġfier ce
Ġm ay
am p
Ġdis app
Wh o
Ġen c
Ġd ug
Ġli es
Ġwa ited
Ġwonder ful
Ġhill s
Ġtr uly
Ġgreat est
ent ly
Ġriver s
Ġm ouse
Ġf ing
Ġfe w
Ġcent er
Ġmo ving
Ġfeeling s
Ġbuild ing
Ġp et
Ġp ound
Ġle a
Ġun sure
Ġsor row
Ġwor d
Ġso c
Ġbec ome
Ġu ne
Ġli fted
Ġgu iding
Ġvan ished
Ġlead ing
Ġtwist ed
Ġh um
Ġvo ices
Ġlo ck
Ġuni verse
Ġsl ipped
us hing
c ess
Ġlar ge
c hes
Ġcle an
Ġcla pped
ĠM aybe
Ġta king
Ġst ream
Ġv i
Ġw on
Ġtre mb
Ġhop es
Ġhaun ted
Ġsim ple
Ġab s
Ġan g
Ġplan s
Ġbelie ving
Ġp acked
Ġre venge
Ġdeterm ined
Ġflow ed
Ġn ature
Ġbring ing
Ġv ast
Ġtravel er
W ow
Ġ ice
Ġcook ies
Ġsu pp
Ġsa ved
Ġmoon light
Ġst ick
Ġd el
Ġmon ster
Ġte ach
Ġsun s
Ġcomp ass
Ġp h
Ġimag ination
Ġhonest y
Ġcould n
ur ing
Ġpath s
ell o
l f
H ello
g ing
y ond
Ġbe yond
Ġstre et
ur ed
Ġh u
Ġesc ape
Ġbut t
Ġwh ich
z y
Ġend ed
Ġswirl ed
Ġc ur
Ġsurf ace
Ġwind s
Ġwelc omed
Ġhapp en
Ġca ke
Ġin t
Ġin spired
s ing
emb er
Ġfreed om
Ġp ear
t ory
Ġabs ence
Ġsnow man
H elp
Ġs ought
Ġhero es
Ġbig ger
Ġl ine
Ġthem selves
Ġtow er
os sed
ig n
g est
Ġcall ing
Ġh un
Ġp ee
Ġspe ak
Ġt rou
Ġcr ossed
Ġblank et
Ġcelebr ation
her o
L ater
Ġey e
Ġfo c
ibil ity
led ge
Ġcare ful
Ġd one
Ġmach ine
Ġro ared
Ġs way
ot h
E very
Ġr ise
Ġway s
Ġun co
m ost
Ġ z
br ant
Ġfing ers
Ġs umm
Ġbr ings
Ġben ch
op s
Ġfr ont
Ġwas h
Ġda wn
Ġquiet ly
Ġenc our
Ġbig gest
d er
Ġcha os
ĠC ould
ĠL et
ad y
a ble
Ġwar ned
x pected
Ġbelong ed
Ġal most
Ġwis hing
Ġcelebr ate
Ġgi ving
o llow
Ġpu zz
Ġdo ing
Ġsn acks
g ued
Ġp ri
v as
u al
Ġd irt
Ġad ded
Ġgl ass
Ġknow ledge
Ġpro ble
ow ed
b o
Ġcan vas
r ed
Ġdeterm ination
Ġhapp ily
Ġp at
Ġp ages
Ġun l
Ġgr ant
oun c
Ġe as
Ġpound ing
Ġf ur
Ġcont ro
Ġvi brant
Ġrobot s
Ġg ri
y ard
Ġw id
r ust
Ġcr ashed
Ġtoward s
ĠS ome
elc ome
uff y
Ġfl ut
Ġhow led
Ġprep ared
S t
le ep
on y
Ġstar ing
Ġstand ing
Ġel se
Ġwor th
Ġs ank
Ġsc ary
Ġma kes
or ed
Ġa p
Ġo kay
Ġspirit s
Ġspr ing
pp y
Ġfe ast
iv ity
Ġpour ed
i an
am ond
ĠOn ce
Ġsp un
Ġwal king
Ġcr uel
Ġpicture s
Ġfor m
ĠQu iet
ĠD ream
W elcome
g round
Ġd ear
Ġdi amond
Ġd im
Ġchallen ges
Ġs ight
Ġb ad
Ġembr ace
Ġac ce
Ġfiel ds
iet y
Ġem er
L ily
Ġloo ks
Ġs elf
a ir
Ġang ry
Ġr ide
Ġwa it
Ġw it
Ġresp ons
Ġv ines
Ġfast er
Ġrem ained
Ġha ving
Ġth ing
Ġhu ge
Ġbutterf lies
C ome
n er
Ġs ne
Ġpear l
Ġloud ly
Ġstay ed
Ġbr an
Ġaw e
Ġpres ence
Ġbran ch
Ġsu per
Ġtrick s
in ing
ow ned
Ġle g
Ġcre aked
res h
Ġbr ush
Ġsil ent
Ġlo omed
Ġcreat ivity
Ġwra pped
b all
F eeling
Ġl ate
Ġwhisp ering
Ġrememb ering
Ġh all
Ġwal k
Ġgaz ed
om ing
Ġch uck
ĠIt s
or d
Ġpoin ting
at s
Ġmiss ing
Ġlear ning
Ġdraw ing
Ġas k
Ġshell s
Ġswirl ing
Ġjoy ful
Ġha ir
Ġpr ide
Ġre l
Ġfr owned
Ġd rew
Ġl ater
Ġhop ed
Ġcle aring
Ġr ul
L eo
c er
Ġre s
Ġo ak
Ġsw im
Ġcho ices
Ġbu ried
Ġpret end
Ġsa f
Ġfor med
Ġf resh
Ġs er
Ġneighb or
Ġli ked
Ġta il
Ġus ing
low ers
Ġsha king
m a
t y
Ġch ase
Ġru ins
Ġback yard
Ġw ear
Ġplant ed
Ġm aybe
ĠE ager
Ġfam il
Ġo b
Ġcast ing
Ġgrin ned
ĠQuiet ly
S oon
Ġb ed
r on
ĠT ime
Ġto r
Ġsumm er
Ġch oo
Ġap art
th s
o cked
Ġho pped
Ġp ot
Ġlong ed
Ġcom m
ĠSh adow
Ġch ose
Ġh or
ĠN o
Ġsp ell
an ic
Ġflo or
Ġfor t
Ġflo ating
Ġbetray al
Ġm er
Ġbus hes
Ġor ange
Ġpull ing
A nd
Ġin sp
Ġs ent
lp h
Ġ ign
Ġpee ked
Ġemer ged
ap s
Ġbu zz
d e
Ġclu es
R e
ĠS p
ĠC h
Ġansw ers
Ġland s
Ġg reed
Ġr ing
D ear
r ot
Ġsnow y
W ill
Ġc oun
Ġbe ast
Ġtwirl ed
ĠHow ever
Ġp oss
Ġas king
as hing
Ġst ret
Ġfad ing
Ġsuper hero
Ġconne cted
if f
Ġchas ed
Ġfl uffy
Ġdiamond s
Ġsymbol s
Ġvis ited
Ġcontro l
Ġdo lph
Ġwho le
Ġb ike
Ġl ose
ĠS ometimes
Ġsol ve
Ġenjoy ed
ĠE arth
Ġste al
Ġpu ppy
Ġsh own
Ġch ir
Ġfail ure
Ġwe ak
Ġtradit ion
k now
ie w
p ose
Ġs on
ĠB e
Ġth ough
Ġinv iting
Ġro ots
Ġspl ashed
ĠC l
v al
ep end
Ġp ar
Ġbutt on
know n
en c
Ġsoc iety
Ġchuck led
en s
Ġless ons
un ch
Ġimag ining
ĠAm ong
Ġe ar
Ġloud er
in ked
s h
Ġart ist
k y
Ġth ief
Ġfin ish
h ood
at tered
Ġdraw ings
Ġpract iced
Ġan t
Ġmeet ing
Ġc her
Ġbeg inning
or row
R ita
Ġcre ep
Ġl ing
Ġun known
Ġflick er
Ġrefle ction
Ġdri fted
Ġho le
Ġg en
Ġtur ning
Ġe at
Ġm ur
Ġdifferen ce
ĠSt ar
Ġco zy
Ġmark et
Ġfin al
Ġv iew
Ġwh y
ĠD id
Ġpur pose
p s
Ġex p
Ġbe ll
Ġhun t
Ġchoo se
Ġtrou ble
Ġn ec
eterm ined
Ġreach ing
f ound
c hen
ud d
o c
Ġkit chen
Ġp ush
Ġwh ite
Ġle an
Ġp ink
Ġmix ed
Ġbot tle
Ġits elf
ri gued
le ase
Ġsh op
' re
Ġune xpected
Ġv al
Ġz oom
Ġd ig
Ġrec all
S amuel
ar p
ĠWith out
Ġfruit s
A re
un n
Ġsm art
Ġyour self
Ġnec k
Ġtoo ls
Ġy ard
Ġfoc used
Ġsk ill
b ook
Ġcirc le
os ing
Ġturn s
om es
Ġs ib
Ġt ug
Ġenjoy ing
n ight
Ġnew found
id es
Ġco in
Ġbe at
Ġwin ning
Ġwee k
Ġsuns et
Wh ile
Ġcl ot
a le
Ġfair ies
ĠO ut
A lex
riend s
Ġstorm s
Ġs ure
y ing
em ember
h aps
Ġclot hes
Ġcra b
Ġc or
ĠB en
Ġwant ing
ĠE ven
Ġin d
Ġt est
Ġb ask
Ġin st
ĠEager ly
Ġt u
Ġda ughter
Ġtremb ling
Ġwas hed
Ġstr uck
Ġp ile
Ġs leep
Ġp ock
Ġsw ord
Ġcour se
Ġwr it
Ġkn elt
ct op
ctop us
Ġs ays
Ġbl inked
b les
Ġto s
Ġsee ing
Ġsw ing
Ġtr ain
Ġfall ing
Ġcarry ing
D etermined
Ġlong ing
Ġconf id
Ġadm ired
Ġhapp ening
Ġw he
A l
Ġp age
Ġgift s
e xt
Ġme adow
Ġaw a
B e
Ġlo vely
Ġpro ject
Ġnight s
Ġpro ve
ĠBen eath
Ġsh arp
Ġfl ood
ĠC uriosity
Ġre g
Ġco st
m ent
Ġ er
Ġstep s
Ġlist ening
Ġv ic
Ġsw imm
a il
Ġproble m
Ġs low
v ice
Ġstr oke
Ġwor ries
Ġpiec es
Ġsha ke
Ġbat tle
n ic
Ġplan ets
Ġgather ing
On ce
ĠL a
Ġcr ash
Ġprin cess
Ġmyster y
Ġsk ies
Ġlea f
Ġal oud
Ġgl anc
Ġsk in
r ance
epend ence
c ting
m ore
Ġri val
Ġli ve
Ġth ree
h ouse
Ġgr ay
Ġr ang
Ġc oo
Ġpic nic
Ġl osing
Ġsurpr ises
Ġsway ed
Ġany more
Ġdes p
Y our
h y
Ġc omet
K im
Ġplay ful
Ġhard er
Ġhold s
Ġspl ash
Ġlo g
a w
Ġo ctopus
Ġchir ped
Ġmer ma
Ġro ar
Ġgem s
Ġflash light
Ġling ered
F ollow
Ġch ar
Ġb ush
Ġd ro
o g
Ġt unn
Ġgi ven
Ġwit ch
igg ing
Ġrain y
Ġsm elled
Ġfo ot
Ġre p
Ġsee king
Ġglimm ered
C urious
Ġn et
Ġlean ed
u nder
Ġm iddle
ro om
Ġob ject
Ġnot es
Ġm arked
ep t
Ġe ars
co l
Ġreveal ed
Ġsu c
Ġd ep
Ġwo lf
Ġb read
Ġpock et
Ġli ving
a x
Ġbelong ing
ĠIn spired
Ġhon or
Ġbask et
Ġun ic
it ies
iz ard
Ġchas ing
Ġunco ver
Ġconne ct
Ġbl oss
Ġf acing
Ġrespons ibility
i ft
Ġhung ry
Ġfear ed
' ll
Ġlet ting
irt ual
ounc ed
Ġtra p
Ġencour aged
Ġco ver
Ġv ent
Ġfall en
Ġfight ing
Ġpet als
Ġknow s
Ġwid ened
Ġv irtual
Ġto m
bo ard
Ġlight ing
Ġtast e
Ġent rance
Ġro de
iz on
Ġm in
Ġshe l
res sed
ation s
Ġan n
Ġmess age
Ġst age
Ġy ell
Ġn ice
col ate
Ġcr ack
Ġpo et
ĠJ oy
The se
Ġswimm ing
Ġhope ful
Ġs end
i ved
g g
Ġf ountain
Ġcomm un
Ġgo al
Ġ V
Ġw izard
up ted
Ġtwink le
Ġfail ed
al f
ĠC o
Ġdolph in
Ġdel ight
Ġhand ed
Ġp ushing
one y
Ġho l
e al
ĠF riends
Ġp ul
Ġhor izon
ĠShadow s
Ġall ey
ĠH app
Ġcr oss
Ġstret ched
al es
Ġa ction
c le
Ġcelebr ating
R emember
ĠLa ughter
Ġquest ions
Ġcl o
Ġvent ured
Ġ ve
er y
Ġjo kes
Ġcho colate
Ġh ug
Ġsm o
Ġsou l
b u
Ġc ut
Ġtwink ling
Ġhol id
ĠTh rough
idd les
Ġwor n
ĠF or
Ġcl ue
D id
Ġawa ited
ed s
i pping
if e
Ġunic orn
Ġansw ered
ĠS il
Ġrepl aced
Ġme ans
Ġread ing
d d
Ġh omes
Ġfl our
Ġzoom ed
Ġind ependence
Ġsupp ort
Ġ Z
Ġri ches
Ġdep ths
E ach
Ġbubb ling
Ġforget ting
Ġc ared
Ġm ud
Ġeas y
Ġsc r
Ġb ase
Ġdark est
Ġl ines
Ġgu ided
Ġph ot
Ġm ar
Ġde er
Ġmerma id
nder ing
Ġneck l
Ġacce pt
ĠWh ile
el o
ies t
ĠAm id
out h
D on
Ġr iddles
Ġsh r
Ġsc ream
Ġsor ry
Ġsh ot
Ġr oo
Ġapp le
Ġle ap
Ġhur ried
Ġwar ning
f ort
Ġl uck
Ġd igging
Ġsho ot
E xcited
Ġh arm
ren ts
Ġcl iff
Ġpri ze
ĠF lowers
Ġshi ft
Ġsc reen
Ġneckl ace
Ġmat tered
Ġor b
e f
Ġb ar
ill ed
Ġplay er
ĠCo lor
Ġer upted
Ġse es
Ġta kes
Ġsmo oth
as ed
i ar
Ġplan ning
Ġpass ing
Ġsk et
Ġcont est
Ġvic tory
Y ears
Ġt ick
Ġsec ond
Ġjo b
Ġca fe
Ġhis tory
Ġvill ain
Ġtre ats
Ġtown s
Ġcor al
Ġpres ent
Ġl ady
Ġcryst als
Ġreg ret
Ġh alf
Ġlock et
Ġfind s
Ġcommun ity
Ġjump ing
Ġh ot
a pped
Ġdec or
S h
Ġcom fort
ĠN ear
Ġsp ine
Ġche ering
Ġf is
N ext
Ġc aring
Ġro ll
ter ing
Ġrust y
The re
ver s
Ġth rived
Ġgr own
Ġgen er
Ġcheer ful
Ġm elo
Ġsnow ball
Ġmur al
Ġro ad
Ġent er
Ġf it
Ġth rew
Ġcreep ing
T ime
Ġbec oming
Ġecho es
Ġsp arked
Ġm elt
Ġp ick
Ġd uring
ĠH ope
Ġsc ent
ens ion
O f
Ġdisco very
Ġd ashed
Ġuni qu
Ġpar rot
ĠL ight
Ġwat ered
Ġso aring
un k
Ġche ers
Ġbuzz ed
ec ting
Ġtos sed
Ġknight s
ĠL ove
ĠF l
Ġexplorer s
ĠWh y
Ġnote book
ĠSp ark
Ġp ad
Ġneed s
f l
Ġst eep
Ġp or
Ġdeep ly
Ġflick ering
Ġe gg
ang ed
Ġeager ly
Ġra ised
Ġc ream
He y
t les
Ġholid ay
d ing
Ġfl ashed
Ġpor ch
Ġdes er
Ġb al
Ġcha ir
Ġc up
Ġshi fted
c ross
ĠK eep
f ather
ick ly
Ġf ate
Ġend less
Ġn est
Ġflood ed
ĠT re
Ġget ting
Ġp ort
Ġquest ion
Ġstr anger
ol k
Ġri ch
Ġdr ink
Ġkn ocked
l ings
Ġsur ge
Ġre ce
Ġrecall ed
Ġso ar
Ġthan k
or ing
Ġkeep ing
ent ion
Ġtra il
Ġmyster ious
Ġrel ief
um n
Ġur ged
Ġdisapp eared
Ġt ension
S ometimes
Ġwonder ing
Ġtri p
Ġmet al
ĠSt ars
Ġscr at
a way
Ġfriendship s
Ġwear ing
Ġany where
Ġfire f
ic y
ut umn
Ġso il
Ġstick s
Ġthink s
Ġtrust ed
Ġsu ch
f olk
Ġtom orrow
Ġuniqu e
Ġover c
Ġflo at
Ġsha ped
ĠOut side
er haps
Ġmin ut
ic king
Ġp anic
Ġsc ales
ĠO r
Ġg re
Ġmist akes
ĠT rust
Ġguard ian
et y
Ġlea ped
Ġo dd
Ġlead s
Ġpond ered
Ġshoot ing
Ġtunn el
Ġfar away
Ġgigg ling
Ġtowns folk
Ġun ity
Ġf ool
Ġst om
f all
Ġgrand father
Ġdoor s
Ġexcited ly
Ġspl ashing
Ġfeather s
Ġtor n
av ing
Ġin s
Ġbeg in
Ġset ting
Ġin vent
ĠB y
Ġsne ak
oy al
Ġt ied
Ġwood en
Ġsib lings
O kay
Ġdi pped
Ġlon el
Ġbloom ing
Ġwhat ever
Ġsqu are
Ġmap s
w e
Ġfamil iar
Ġr um
Ġex ch
Ġe ff
Ġper for
Ġbuild ings
ĠHe art
Ġth under
Ġb ite
fl akes
Ġm ine
Ġsaf ety
Ġwant s
Ġp udd
Ġmy self
ĠG l
Ġmist ake
Ġcon s
Ġshe lf
Ġr ising
b s
Ġor der
Ġplant ing
Ġskill s
Ġcl ut
ow s
Ġste ady
Ġgrow th
bb le
Ġfir m
Ġballoon s
emor ies
Ġsm oke
Ġcoll ect
irr ed
Ġor d
Ġlonel iness
Ġcher ish
ud e
Ġpract ice
il iz
Ġsw ept
t rigued
Ġth row
ĠA cross
Ġcreat ion
Ġj ung
ĠSo ft
Ġempt iness
Ġ Yes
Ġdo ve
Ġdesp air
o ll
Ġb ark
Ġsc en
Ġb ak
w ater
Ġwa ving
Ġgigg le
Ġa st
Ġunl ock
Ġpa rents
Ġdes k
Ġsho cked
Ġport al
B ack
i ant
Ġsou ls
Ġsc are
Ġchild hood
Ġch arm
Ġs igh
Ġjung le
Ġunder ground
Ġinst ant
p ted
Ġprom ising
Ġgu ilt
oo king
Ġbo ld
Ġr hy
Ġeff ort
Ġbe amed
e re
L ena
Ġsp inning
Ġa utumn
Ġcom pl
iv iliz
Ġd ad
Ġc iviliz
ar row
Ġsee m
c ast
Ġbetray ed
Ġre new
Ġinsp ir
Ġtremb led
Ġstud ied
u ally
Ġt icked
Ġproud ly
Ġd est
ĠA ll
Ġlo cked
Ġcirc les
it ted
Ġun ited
Ġkit ten
read y
Ġold er
Ġtou gh
Ġshi ver
Ġclimb ing
Ġal ready
us ing
Ġde fe
Ġpur ple
C ould
Ġwr iting
Ġst at
Ġsho es
m er
oc king
Ġstud ents
Ġwrit ten
Ġplay ers
Ġapp les
on f
ĠM emories
Ġgl it
or m
it tle
ast er
A n
Ġmix ing
p e
Ġat e
Ġ ir
ic ally
Ġun f
our ce
Ġche e
ĠWh o
Ġland ing
Ġwe eds
Ġmach ines
Ġur ging
ĠB eside
ĠAl ong
Ġb le
Ġfl apped
Ġj oke
Ġa ched
Ġdes ire
Ġsc ar
ĠL e
Ġstrugg led
Ġdanger ous
Ġste pping
Al ice
ĠT w
Ġin c
Ġli on
Ġghost s
S ee
Ġrece ived
Ġgr ace
Ġsail or
H is
Ġunco vered
Ġ ill
Ġsign s
Ġhat s
ĠD ays
Ġwis ely
Ġimag es
Ġrhy th
Ġplay ground
Ġembr aced
m ates
ain t
Ġrenew ed
Ġval u
Ġshin es
Ġdel ic
Ġcry ing
Ġser ious
es p
Ġspread ing
ĠQu ickly
Ġdri ft
Ġyell ow
Ġr ound
Ġex per
Ġtr unk
Ġbre aking
Ġp en
Ġseas ons
Ġfollow ing
iz e
Ġguard ed
Ġpret ty
ĠL ittle
ke y
Ġatt ention
Ġrhyth m
Ġpart s
Ġb ake
Ġit em
Ġinv ite
av es
Ġexch anged
im id
Ġp ie
et ed
J ean
ĠG ently
ĠD ark
Ġlift ing
Ġtradit ions
iz z
Ġw ag
Ġdoub ts
Ġco at
Ġfamil ies
Ġl ur
us ion
v est
Ġri pp
Ġvalu able
Ġdro pped
Ġminut es
Ġr aged
Ġciviliz ation
S o
Ġex pected
Ġr ac
Ġsuc cess
Ġhapp ier
Ġpl ot
Ġpuzz le
Ġmind s
Ġac he
iz ed
Ġclu b
Ġshin ed
Ġd ress
Ġr is
Ġl unch
al ax
ain s
Ġen em
Ġbal ance
ĠC an
Ġreal ity
P lease
Ġv owed
Ġrefle cting
Ġm oney
Ġbe ating
Ġteach ing
Ġmelo dy
Ġche ck
Ġgr anted
Ġacce pted
Ġunder water
Ġh our
in ary
Ġro amed
Ġp ang
Ġshel ter
Ġrival ry
an o
Ġgu ess
Ġleg s
Ġast ron
it ude
Ġnot ice
Ġa ud
f ish
Ġpuzz led
Ġdiscover ing
Ġde vice
on ed
Ġp il
un ched
Ġcr acked
Ġwat ers
Ġbox es
Ġinsp ire
Ġble nd
ĠP erhaps
ust ling
Ġgrow s
Ġwe aving
Ġfro ze
Ġpow ers
i res
Ġsnow flakes
ci ous
Ġsh ort
Ġastron aut
ĠF ear
Ġn arrow
Ġm id
Ġsand cast
Ġstat ue
Ġtr oll
Ġbubb le
Ġtu ne
end ed
ĠG u
Ġwra pping
Ġac orn
Ġpaint ings
Ġl ined
Ġoverc ome
Ġg alax
Ġbloss omed
Ġb er
Ġann ounced
ĠC alm
Ġas ide
Ġposs ible
Ġyoung er
t led
Ġfl ight
Ġdark er
Ġgarden s
St ay
Ġneighb ors
Ġrul es
ump y
enc il
Ġencour ag
Ġgri pped
it ion
Ġcoll ected
Ġclo ak
Ġdist r
Ġbond s
Ġsw ell
app ing
Ġfor ms
Ġfur ther
Ġstrugg le
Ġm ember
th day
iz ing
Ġsoc cer
Ġw et
Ġch at
Ġir ony
Ġwh ale
Ġpretend ing
b ut
Ġback p
Ġmo ves
Ġsaf ely
Ġbo dy
ĠAmid st
Ġchang ing
Ġstom ach
un ny
Ġm outh
i ent
Ġpass ion
Ġgiant s
Ġaud ience
Ġspark les
Ġtell s
ĠP l
H er
st ep
Ġn ose
Ġdragon s
ag le
Ġpo pped
Ġfor th
Ġb ustling
ious ly
Ġp encil
Ġseas on
ĠTh ough
Ġg ust
b in
Ġtast ed
Ġcook ie
ang ers
Ġkit es
Ġroo f
Ġwater fall
J ose
Ġdr op
Ġscream ed
Ġfam ous
Ġd ull
In spired
Ġvis ion
Ġpad d
es e
ol en
Ġtal ent
Ġst olen
co on
Ġsail ing
Ġbag s
Ġsc attered
Ġshould ers
Ġdes c
Ġbright ened
Ġbe e
Ġar g
Ġca bin
Ġsand w
Ġar m
Ġsqu e
Ġwar ri
id er
On ly
Ġflow ing
Ġp ed
Ġm en
ĠH elp
Ġpic king
Ġmean ing
ell y
Ġdi ve
Ġl ying
Ġto night
Be fore
Ġimport ance
With out
Ġbir thday
Ġd ressed
ĠT imid
ad es
Ġleg end
Ġcra w
ll s
Ġlantern s
Ġdo d
Ġscen e
N ot
il ted
Ġunf old
t om
E mmanuel
Ġstrugg ling
Ġfigure s
Ġbra vely
Ġdisapp oin
Ġgl ade
Ġexcit ing
Ġbot tom
Ġfix ed
Ġspark le
Ġpoin t
ĠG old
r ing
ĠR ain
o ot
Ġth reat
Ġg n
Ġe agle
Ġdisapp ear
Ġsl ipping
ĠB l
a it
Ġcr umb
Ġcomp et
Ġso ck
n ings
Ġtall er
Ġconfid ent
Ġche ese
ĠIn trigued
Ġdi re
Ġscrat ched
as y
Ġb aked
Ġshow s
Ġbl ack
Ġgrin ning
Ġmon key
Ġsor ce
Ġex ist
Ġk icked
ee ks
Ġwal ks
Ġown er
Ġrabbit s
Ġstrugg les
Ġbubb les
Ġglimm er
Ġwa ndering
ch ie
Ġe vent
Ġpat ience
Ġtri pped
ĠCl ouds
Ġdelic ious
Ġvis ions
ĠHe re
Ġur ge
Ġunl ike
Ġbl ocking
Ġb ri
Ġpri ce
Ġel der
c her
Ġproble ms
Ġg ate
Ġs led
it ting
ang led
Ġtransfor m
h ant
In stead
Ġimp ress
Ġca ves
M aria
Ġcraw led
Ġresp ect
Ġpe ak
Ġtall est
r ated
Ġsw ung
ne ver
Ġadm itted
el d
ĠC onf
Ġli e
Ġkey s
Ġwas n
Ġbackp ack
ic ing
ather ing
ĠWh isp
Ġrac coon
Ġout s
Ġrust ling
ĠS w
Ġra re
ĠGu ard
Ġb rew
ĠMy ster
ĠU p
Ġstr ing
Ġrock y
le e
W eeks
Ġm ask
Ġdin ner
to ise
Ġj ar
ĠDream s
Ġsh ock
Ġpul sed
Ġbr ushed
Ġf aint
Ġfiref lies
Ġfi rew
Ġpre cious
Ġd et
ĠP anic
Ġspe ed
step s
il ience
z en
Ġform ing
ĠM oon
Ġshr ugged
Ġd ared
Ġpe ered
ibil ities
Ġas ks
Ġme al
h ine
Ġlaugh s
g n
ĠBe fore
Ġk is
am b
Ġc ard
Ġj elly
Ġh ar
Ġscar f
Ġhall s
Ġtor toise
ent le
Ġbe ings
l ier
Ġdeser t
Ġrul ed
Ġgre eted
ĠG entle
Ġber ries
Ġsk ate
Ġbloom s
c est
Ġd uck
Ġfr ag
Ġfro zen
f lowers
Ġrest ing
art ed
Ġl ot
Ġsn ail
Ġflut tered
Ġgra b
Ġstorm y
Ġwind ing
Ġbe am
os en
Ġb low
el esc
Ġt er
Ġen g
a ped
s hip
ron ically
Ġjew el
He re
ĠE xc
o ff
Ġh ang
Ġspr out
ĠB el
Ġst irred
ars h
w s
Ġc ou
Ġread er
Ġlog ic
Ġb ow
Ġsw elled
Ġsuns hine
Ġwarm ed
How ever
Ġch osen
c es
Ġp le
p ing
Ġtrick y
elesc ope
Ġfr own
Ġr ushing
Ġsad ly
Ġbutt ons
t he
Ġb an
Ġtu cked
Ġune asy
Ġs ly
Ġthri lled
Ġjo ked
Ġfl ames
J oin
Ġt ear
Ġc amp
Ġgaz ing
ĠF eeling
ĠO ther
Ġhead s
W ait
ad ed
b ank
Ġbl ink
Ġsque aked
Ġth r
Ġr ough
Ġt ask
um in
sp eople
al ed
Ġrefle cted
Ġtown speople
Ġch ick
Ġtow ers
he st
Ġsto le
Ġsend ing
Ġcle ared
Ġt elescope
Ġb are
ĠF ollow
Ġrainbow s
Ġcompl et
all ow
Ġs udden
ĠTre es
Ġharm ony
se en
Ġcon qu
Ġbright est
per ation
Ġposs ibilities
Ġdec ide
n ers
Ġre ef
Ġmat ch
ĠG r
Ġgaz e
Ġchar ac
Ġt em
Ġfrog s
ĠT r
at itude
Ġbur den
ic t
ĠT ears
Ġaction s
in t
Ġconfid ence
Ġp ump
Ġforest s
Ġgr atitude
Ġseas he
ous es
T rust
Ġwh ist
Ġneighbor hood
Ġkeep er
Ġshimm er
Ġexp ress
on ight
Ġord inary
Ġrespons ible
oo ped
Ġgreat er
Ġglimm ering
Ġs al
ĠB ra
as ks
Ġinspir ation
ic al
T aking
To day
bu ried
Ġtrust ing
Ġdire ction
ind ness
Ġsp in
Ġres ilience
Ġcur se
W ould
Ġint rigued
ec ause
Ġbak er
Ġchee ks
Ġth read
H old
Ġring ing
Ġear ly
Ġb arked
ip s
i ans
and ing
Ġbubb led
ur pr
Ġsp illed
Ġan ts
or ks
Ġpadd led
Ġsteal ing
Ġj ud
Ġsmall er
air s
Ġpretend ed
bb led
ere st
ĠSh ould
we ed
Ġf re
Ġopen s
izz a
Ġriver bank
Ġre bu
Ġfoot steps
Ġhur ry
Ġsol ved
ut s
Ġspr ink
Ġun seen
Ġsea weed
Ġsandcast le
Ġp al
ec h
Ġclean ing
ĠL ong
Ġroll ing
