{"!": 0, "\"": 1, "#": 2, "$": 3, "%": 4, "&": 5, "'": 6, "(": 7, ")": 8, "*": 9, "+": 10, ",": 11, "-": 12, ".": 13, "/": 14, "0": 15, "1": 16, "2": 17, "3": 18, "4": 19, "5": 20, "6": 21, "7": 22, "8": 23, "9": 24, ":": 25, ";": 26, "=": 27, "?": 28, "@": 29, "A": 30, "B": 31, "C": 32, "D": 33, "E": 34, "F": 35, "G": 36, "H": 37, "I": 38, "J": 39, "K": 40, "L": 41, "M": 42, "N": 43, "O": 44, "P": 45, "Q": 46, "R": 47, "S": 48, "T": 49, "U": 50, "V": 51, "W": 52, "X": 53, "Y": 54, "Z": 55, "a": 56, "b": 57, "c": 58, "d": 59, "e": 60, "f": 61, "g": 62, "h": 63, "i": 64, "j": 65, "k": 66, "l": 67, "m": 68, "n": 69, "o": 70, "p": 71, "q": 72, "r": 73, "s": 74, "t": 75, "u": 76, "v": 77, "w": 78, "x": 79, "y": 80, "z": 81, "\u010a": 82, "\u0120": 83, "he": 84, "\u0120t": 85, "\u0120a": 86, "\u0120s": 87, "ed": 88, "\u0120the": 89, "in": 90, "\u0120w": 91, "\u0120f": 92, "re": 93, "nd": 94, "\u0120b": 95, "ou": 96, "\u0120he": 97, "er": 98, "\u0120c": 99, "ing": 100, "\u0120h": 101, "\u0120o": 102, "\u0120l": 103, "it": 104, "ar": 105, "\u0120to": 106, "at": 107, "\u0120and": 108, "\u0120d": 109, "is": 110, "an": 111, "The": 112, "\u0120m": 113, "ll": 114, "en": 115, "as": 116, "\u0120The": 117, "or": 118, "es": 119, "\u0120p": 120, "\u0120g": 121, "el": 122, "gh": 123, "\u0120th": 124, "ow": 125, "\u0120in": 126, "\u0120of": 127, "on": 128, "\u0120st": 129, "\u0120n": 130, "ld": 131, "ad": 132, "\u0120\"": 133, "ir": 134, "ght": 135, "id": 136, "\u0120her": 137, "et": 138, "\u0120she": 139, "om": 140, "\u0120e": 141, "ac": 142, "\u0120was": 143, "ut": 144, "ri": 145, "im": 146, "ith": 147, "st": 148, "ay": 149, "le": 150, "am": 151, "\u0120sh": 152, "\u0120it": 153, "\u0120S": 154, "ot": 155, "\u0120be": 156, "\u0120re": 157, "\u0120they": 158, "\u0120I": 159, "\u0120with": 160, "al": 161, "ly": 162, "ic": 163, "\u0120r": 164, "oo": 165, "her": 166, "ver": 167, "\u0120H": 168, "ked": 169, "\u0120li": 170, "ke": 171, "ve": 172, "\u0120that": 173, "\u0120sa": 174, "elt": 175, "\u0120felt": 176, "\u0120on": 177, "\u0120j": 178, "\u0120A": 179, "\u0120\u010a": 180, "\u0120They": 181, "ound": 182, "ill": 183, "\u0120his": 184, "ould": 185, "\u0120u": 186, "\u0120He": 187, "\u0120but": 188, "all": 189, "ent": 190, "!\"": 191, "\u0120had": 192, "out": 193, "\u0120as": 194, "\u0120She": 195, "\u0120for": 196, "art": 197, "hed": 198, "ind": 199, "ear": 200, "ag": 201, "\u0120y": 202, "ure": 203, "ur": 204, "\u0120sp": 205, "pp": 206, "\u0120k": 207, "\u0120sm": 208, "oy": 209, "ne": 210, "\u0120their": 211, "\u0120wh": 212, "ant": 213, "os": 214, "\u0120we": 215, "\u0120you": 216, "il": 217, "end": 218, "\u0120la": 219, "ec": 220, "\u0120L": 221, "\u0120lo": 222, "un": 223, "\u0120pl": 224, "\u0120not": 225, "ust": 226, "\u0120said": 227, "riend": 228, "\u0120wor": 229, "\u0120him": 230, "\u0120tre": 231, "ore": 232, "\u0120ha": 233, "\u0120friend": 234, "ain": 235, "ered": 236, "\u0120heart": 237, "ide": 238, "ard": 239, "\u0120cl": 240, "one": 241, "ee": 242, "ight": 243, "\u0120W": 244, "\u0120fe": 245, "ned": 246, "low": 247, "\u0120ch": 248, "\u0120It": 249, "ft": 250, "\u0120ne": 251, "\u0120al": 252, "ark": 253, "?\"": 254, "\u0120M": 255, "rou": 256, "op": 257, "\u0120an": 258, "\u0120day": 259, "\u0120lau": 260, "\u0120v": 261, "\u0120could": 262, "ce": 263, "ach": 264, "ra": 265, "'s": 266, "\u0120found": 267, "get": 268, "ch": 269, "ers": 270, "reat": 271, "very": 272, "ong": 273, "em": 274, "\u0120ab": 275, "rom": 276, "ig": 277, "irl": 278, "\u0120stor": 279, "\u0120like": 280, "ia": 281, ",\"": 282, "\u0120B": 283, "\u0120at": 284, "gether": 285, "\u0120them": 286, "\u0120so": 287, "\u0120loo": 288, "ome": 289, "ies": 290, "ream": 291, "\u0120is": 292, "ang": 293, "\u0120ex": 294, "ood": 295, "if": 296, "right": 297, "ought": 298, "ved": 299, "us": 300, "\u0120girl": 301, "\u0120tr": 302, "\u0120friends": 303, "\u0120co": 304, "ess": 305, "\u0120E": 306, "\u0120ar": 307, "ace": 308, "\u0120feel": 309, "\u0120ro": 310, "ack": 311, "\u0120dream": 312, "to": 313, "ared": 314, "est": 315, "king": 316, "\u0120thought": 317, "den": 318, "\u0120fill": 319, ".\"": 320, "\u0120were": 321, "\u0120want": 322, "\u0120about": 323, "\u0120can": 324, "\u0120up": 325, "\u0120joy": 326, "\u0120do": 327, "ul": 328, "ast": 329, "\u0120bright": 330, "\u0120into": 331, "\u0120But": 332, "\u0120str": 333, "hing": 334, "\u0120star": 335, "\u0120boy": 336, "lp": 337, "\u0120T": 338, "ame": 339, "now": 340, "\u0120le": 341, "nder": 342, "\u0120ma": 343, "\u0120smil": 344, "\u0120help": 345, "hat": 346, "\u0120wat": 347, "\u0120would": 348, "uel": 349, "\u0120light": 350, "\u0120ca": 351, "our": 352, "way": 353, "eo": 354, "\u0120filled": 355, "\u0120together": 356, "\u0120every": 357, "\u0120gr": 358, "\u0120back": 359, "\u0120find": 360, "ice": 361, "\u0120Mia": 362, "\u0120looked": 363, "\u0120Leo": 364, "\u0120real": 365, "\u0120from": 366, "hen": 367, "led": 368, "ion": 369, "\u0120too": 370, "side": 371, "ade": 372, "\u0120out": 373, "\u0120In": 374, "ck": 375, "\u0120see": 376, "\u0120ey": 377, "As": 378, "asure": 379, "\u0120just": 380, "ist": 381, "One": 382, "\u0120treasure": 383, "\u0120old": 384, "ull": 385, "\u0120sk": 386, "iz": 387, "ud": 388, "\u0120small": 389, "ther": 390, "\u0120eyes": 391, "\u0120wis": 392, "pl": 393, "\u0120dan": 394, "\u0120ag": 395, "\u0120wa": 396, "\u0120saw": 397, "\u0120smiled": 398, "\u0120this": 399, "\u0120other": 400, "\u0120all": 401, "amed": 402, "\u0120feeling": 403, "\u0120one": 404, "rough": 405, "\u0120beg": 406, "agic": 407, "\u0120asked": 408, "\u0120br": 409, "\u0120made": 410, "\u0120happ": 411, "lex": 412, "\u0120flow": 413, "\u0120sun": 414, "ose": 415, "\u0120lear": 416, "pped": 417, "\u0120me": 418, "\u0120magic": 419, "ous": 420, "\u0120tur": 421, "\u0120through": 422, "\u0120rem": 423, "\u0120ad": 424, "\u0120around": 425, "\u0120world": 426, "\u0120named": 427, "\u0120wanted": 428, "\u0120Alex": 429, "omet": 430, "\u0120creat": 431, "\u0120lost": 432, "ime": 433, "\u0120play": 434, "\u0120K": 435, "\u0120J": 436, "qu": 437, "ange": 438, "\u0120With": 439, "ily": 440, "\u0120no": 441, "\u0120fl": 442, "fe": 443, "wn": 444, "ter": 445, "\u0120began": 446, "ip": 447, "ened": 448, "\u0120night": 449, "\u0120big": 450, "\u0120stories": 451, "\u0120sky": 452, "\u0120go": 453, "\u0120realiz": 454, "\u0120man": 455, "\u0120stars": 456, "\u0120know": 457, "\u0120dec": 458, "ched": 459, "\u0120Kim": 460, "\u0120by": 461, "\u0120hop": 462, "um": 463, "ted": 464, "\u0120sw": 465, "\u0120dark": 466, "\u0120time": 467, "ds": 468, "eep": 469, "ile": 470, "own": 471, "amuel": 472, "age": 473, "ep": 474, "vent": 475, "\u0120somet": 476, "\u0120under": 477, "ven": 478, "lor": 479, "here": 480, "\u0120exc": 481, "ghter": 482, "\u0120dreams": 483, "You": 484, "\u0120war": 485, "\u0120cr": 486, "udden": 487, "\u0120learned": 488, "ook": 489, "\u0120each": 490, "What": 491, "\u0120ta": 492, "av": 493, "\u0120Samuel": 494, "ity": 495, "uddenly": 496, "\u0120danc": 497, "\u0120color": 498, "\u0120its": 499, "\u0120who": 500, "\u0120if": 501, "venture": 502, "tle": 503, "ond": 504, "ell": 505, "\u0120shared": 506, "\u0120deep": 507, "ather": 508, "ful": 509, "\u0120adventure": 510, "\u0120will": 511, "th": 512, "\u0120air": 513, "\u0120love": 514, "\u0120new": 515, "\u0120As": 516, "\u0120laughter": 517, "ided": 518, "ild": 519, "\u0120che": 520, "\u0120realized": 521, "ren": 522, "\u0120mom": 523, "\u0120gi": 524, "alked": 525, "ghed": 526, "\u0120laughed": 527, "\u0120again": 528, "\u0120more": 529, "isp": 530, "sed": 531, "\u0120my": 532, "emb": 533, "ness": 534, "\u0120moment": 535, "\u0120sha": 536, "\u0120One": 537, "\u0120fo": 538, "\u0120decided": 539, "\u0120whisp": 540, "ick": 541, "\u0120warm": 542, "\u0120spark": 543, "adow": 544, "elf": 545, "\u0120mo": 546, "\u0120something": 547, "\u0120qu": 548, "new": 549, "\u0120con": 550, "ings": 551, "\u0120sc": 552, "ret": 553, "\u0120hid": 554, "ue": 555, "\u0120R": 556, "\u0120are": 557, "\u0120se": 558, "\u0120pe": 559, "\u0120soft": 560, "aut": 561, "\u0120op": 562, "ro": 563, "\u0120shin": 564, "\u0120knew": 565, "\u0120took": 566, "\u0120bl": 567, "\u0120am": 568, "ited": 569, "\u0120danced": 570, "\u0120fun": 571, "\u0120even": 572, "\u0120tree": 573, "\u0120fore": 574, "ople": 575, "\u0120down": 576, "and": 577, "\u0120home": 578, "\u0120un": 579, "\u0120clos": 580, "\u0120beaut": 581, "\u0120rememb": 582, "se": 583, "\u0120ke": 584, "\u0120what": 585, "\u0120away": 586, "arden": 587, "\u0120walked": 588, "\u0120garden": 589, "rew": 590, "ached": 591, "\u0120shadow": 592, "\u0120expl": 593, "oke": 594, "\u0120read": 595, "\u0120over": 596, "his": 597, "\u0120lit": 598, "\u0120glow": 599, "\u0120bra": 600, "\u0120Each": 601, "\u0120sad": 602, "\u0120hope": 603, "ge": 604, "\u0120flowers": 605, "\u0120bel": 606, "ie": 607, "\u0120where": 608, "self": 609, "ried": 610, "oin": 611, "\u0120show": 612, "\u0120hand": 613, "\u0120than": 614, "\u0120how": 615, "\u0120wind": 616, "\u0120sur": 617, "other": 618, "\u0120turned": 619, "pt": 620, "\u0120vill": 621, "\u0120way": 622, "aced": 623, "\u0120strange": 624, "\u0120fear": 625, "ning": 626, "ath": 627, "ita": 628, "\u0120let": 629, "ink": 630, "\u0120did": 631, "\u0120bu": 632, "\u0120sat": 633, "ting": 634, "\u0120C": 635, "\u0120stood": 636, "\u0120vo": 637, "\u0120To": 638, "\u0120sec": 639, "\u0120shout": 640, "\u0120hidden": 641, "\u0120app": 642, "\u0120tw": 643, "With": 644, "\u0120inside": 645, "\u0120have": 646, "\u0120plan": 647, "\u0120bo": 648, "fter": 649, "ally": 650, "\u0120Rita": 651, "\u0120map": 652, "\u0120secret": 653, "\u0120P": 654, "\u0120then": 655, "aring": 656, "\u0120bec": 657, "\u0120full": 658, "tur": 659, "\u0120pain": 660, "\u0120F": 661, "\u0120shouted": 662, "ped": 663, "\u0120water": 664, "\u0120place": 665, "\u0120ali": 666, "\u0120happy": 667, "\u0120there": 668, "hip": 669, "\u0120strong": 670, "\u0120loved": 671, "med": 672, "\u0120retur": 673, "\u0120en": 674, "\u0120wr": 675, "uri": 676, "\u0120came": 677, "\u0120knowing": 678, "ways": 679, "bb": 680, "\u0120brave": 681, "\u0120people": 682, "ate": 683, "\u0120colors": 684, "\u0120told": 685, "\u0120need": 686, "\u0120story": 687, "\u0120always": 688, "\u0120little": 689, "\u0120Lily": 690, "\u0120land": 691, "\u0120forest": 692, "ish": 693, "\u0120voice": 694, "\u0120set": 695, "\u0120ste": 696, "br": 697, "\u0120others": 698, "ves": 699, "\u0120make": 700, "In": 701, "\u0120fi": 702, "\u0120when": 703, "\u0120im": 704, "\u0120trees": 705, "'t": 706, "ug": 707, "co": 708, "\u0120own": 709, "\u0120kind": 710, "\u0120ri": 711, "\u0120life": 712, "\u0120share": 713, "\u0120whispered": 714, "ree": 715, "\u0120now": 716, "\u0120everyone": 717, "\u0120creature": 718, "ise": 719, "\u0120gather": 720, "\u0120watched": 721, "\u0120Suddenly": 722, "\u0120reached": 723, "oud": 724, "\u0120long": 725, "\u0120city": 726, "\u0120hard": 727, "\u0120door": 728, "ised": 729, "\u0120alone": 730, "ely": 731, "\u0120bir": 732, "\u0120beautif": 733, "\u0120Al": 734, "ded": 735, "ble": 736, "\u0120ho": 737, "\u0120held": 738, "eter": 739, "\u0120opened": 740, "\u0120beautiful": 741, "ass": 742, "ct": 743, "\u0120your": 744, "\u0120shadows": 745, "ling": 746, "\u0120list": 747, "\u0120dis": 748, "llow": 749, "lew": 750, "We": 751, "\u0120underst": 752, "ite": 753, "man": 754, "\u0120te": 755, "ak": 756, "\u0120bot": 757, "\u0120child": 758, "\u0120laugh": 759, "ry": 760, "ated": 761, "\u0120rock": 762, "ied": 763, "aria": 764, "ence": 765, "emor": 766, "\u0120must": 767, "\u0120cave": 768, "ean": 769, "hes": 770, "\u0120village": 771, "\u0120remembered": 772, "\u0120tall": 773, "\u0120stone": 774, "oss": 775, "\u0120com": 776, "\u0120call": 777, "\u0120pow": 778, "\u0120heard": 779, "ching": 780, "\u0120friendship": 781, "\u0120Together": 782, "\u0120breat": 783, "\u0120dr": 784, "\u0120Alice": 785, "\u0120ran": 786, "\u0120pic": 787, "vered": 788, "\u0120tal": 789, "\u0120prom": 790, "\u0120ready": 791, "\u0120true": 792, "iet": 793, "\u0120Maria": 794, "iced": 795, "\u0120any": 796, "\u0120smile": 797, "\u0120bet": 798, "res": 799, "pr": 800, "\u0120fa": 801, "ement": 802, "\u0120repl": 803, "\u0120great": 804, "\u0120Jose": 805, "\u0120memor": 806, "urious": 807, "\u0120lead": 808, "\u0120room": 809, "\u0120nod": 810, "ena": 811, "\u0120power": 812, "\u0120sharing": 813, "\u0120off": 814, "\u0120sear": 815, "\u0120path": 816, "\u0120join": 817, "\u0120giant": 818, "\u0120grew": 819, "inally": 820, "\u0120part": 821, "\u0120book": 822, "ation": 823, "\u0120some": 824, "\u0120breath": 825, "ward": 826, "When": 827, "\u0120Jean": 828, "ial": 829, "\u0120storm": 830, "\u0120snow": 831, "ving": 832, "\u0120played": 833, "\u0120stepped": 834, "\u0120gold": 835, "\u0120nodded": 836, "\u0120fly": 837, "\u0120or": 838, "\u0120come": 839, "This": 840, "\u0120gra": 841, "\u0120fam": 842, "\u0120cheered": 843, "oon": 844, "ove": 845, "\u0120both": 846, "ng": 847, "\u0120became": 848, "roud": 849, "\u0120never": 850, "\u0120excit": 851, "\u0120Lena": 852, "\u0120em": 853, "\u0120surpr": 854, "igh": 855, "\u0120spoke": 856, "\u0120follow": 857, "\u0120proud": 858, "oun": 859, "Let": 860, "\u0120end": 861, "\u0120leav": 862, "\u0120pr": 863, "\u0120gu": 864, "\u0120spec": 865, "\u0120tra": 866, "\u0120only": 867, "\u0120special": 868, "ank": 869, "\u0120young": 870, "\u0120while": 871, "\u0120best": 872, "\u0120noticed": 873, "\u0120start": 874, "imb": 875, "mman": 876, "mmanuel": 877, "\u0120gathered": 878, "\u0120replied": 879, "ten": 880, "les": 881, "\u0120pull": 882, "\u0120town": 883, "\u0120excitement": 884, "\u0120words": 885, "oman": 886, "\u0120rain": 887, "\u0120belie": 888, "\u0120wond": 889, "ouds": 890, "\u0120woman": 891, "\u0120An": 892, "\u0120grow": 893, "\u0120face": 894, "\u0120sound": 895, "hind": 896, "\u0120explore": 897, "\u0120wo": 898, "\u0120fish": 899, "\u0120warmth": 900, "\u0120flew": 901, "az": 902, "Wh": 903, "\u0120climb": 904, "iness": 905, "\u0120cour": 906, "xt": 907, "ering": 908, "thing": 909, "\u0120returned": 910, "\u0120Emmanuel": 911, "\u0120ground": 912, "\u0120wish": 913, "\u0120past": 914, "\u0120closer": 915, "imm": 916, "But": 917, "\u0120heav": 918, "ect": 919, "cho": 920, "\u0120us": 921, "ny": 922, "aces": 923, "\u0120behind": 924, "\u0120disco": 925, "\u0120step": 926, "\u0120many": 927, "iny": 928, "\u0120clouds": 929, "\u0120bird": 930, "\u0120gl": 931, "ance": 932, "\u0120softly": 933, "\u0120His": 934, "imes": 935, "\u0120sparkled": 936, "\u0120bring": 937, "\u0120seemed": 938, "eared": 939, "\u0120river": 940, "ool": 941, "\u0120cle": 942, "\u0120tell": 943, "fore": 944, "\u0120car": 945, "ugg": 946, "\u0120fir": 947, "\u0120hearts": 948, "\u0120Her": 949, "\u0120ship": 950, "\u0120echo": 951, "\u0120still": 952, "\u0120When": 953, "\u0120D": 954, "\u0120excited": 955, "\u0120met": 956, "ush": 957, "ined": 958, "\u0120care": 959, "\u0120take": 960, "agon": 961, "bot": 962, "\u0120change": 963, "\u0120flower": 964, "\u0120jour": 965, "\u0120tiny": 966, "reed": 967, "iting": 968, "ushed": 969, "so": 970, "als": 971, "be": 972, "\u0120Every": 973, "\u0120fell": 974, "ap": 975, "\u0120dragon": 976, "ead": 977, "\u0120flo": 978, "They": 979, "\u0120family": 980, "\u0120called": 981, "\u0120heavy": 982, "\u0120robot": 983, "\u0120listened": 984, "\u0120imag": 985, "ney": 986, "\u0120raced": 987, "\u0120journey": 988, "\u0120worked": 989, "\u0120cat": 990, "\u0120O": 991, "\u0120jum": 992, "\u0120quiet": 993, "\u0120being": 994, "\u0120above": 995, "Suddenly": 996, "\u0120work": 997, "\u0120next": 998, "\u0120mind": 999, "\u0120once": 1000, "\u0120dif": 1001, "\u0120first": 1002, "feren": 1003, "\u0120also": 1004, "ine": 1005, "irit": 1006, "\u0120differen": 1007, "\u0120looking": 1008, "\u0120ra": 1009, "ave": 1010, "\u0120promised": 1011, "sp": 1012, "\u0120courage": 1013, "ort": 1014, "\u0120wise": 1015, "\u0120spirit": 1016, "\u0120gent": 1017, "\u0120appeared": 1018, "\u0120inv": 1019, "\u0120secrets": 1020, "stead": 1021, "\u0120magical": 1022, "\u0120alive": 1023, "\u0120memories": 1024, "\u0120before": 1025, "\u0120remind": 1026, "rought": 1027, "\u0120box": 1028, "\u0120wonder": 1029, "\u0120ac": 1030, "oom": 1031, "\u0120near": 1032, "\u0120king": 1033, "\u0120himself": 1034, "\u0120brought": 1035, "\u0120loud": 1036, "\u0120things": 1037, "\u0120ide": 1038, "assed": 1039, "\u0120Inside": 1040, "inking": 1041, "ks": 1042, "\u0120keep": 1043, "\u0120good": 1044, "\u0120herself": 1045, "\u0120soon": 1046, "\u0120glowing": 1047, "iv": 1048, "\u0120try": 1049, "\u0120dance": 1050, "\u0120here": 1051, "He": 1052, "tain": 1053, "\u0120mis": 1054, "\u0120sea": 1055, "\u0120passed": 1056, "\u0120laughing": 1057, "\u0120spot": 1058, "\u0120shiny": 1059, "lowly": 1060, "aybe": 1061, "\u0120high": 1062, "\u0120left": 1063, "\u0120showed": 1064, "\u0120Anne": 1065, "\u0120cast": 1066, "\u0120wondered": 1067, "\u0120fr": 1068, "\u0120hands": 1069, "\u0120hold": 1070, "\u0120happiness": 1071, "\u0120fair": 1072, "\u0120sil": 1073, "\u0120started": 1074, "land": 1075, "\u0120free": 1076, "\u0120shining": 1077, "\u0120kindness": 1078, "ouse": 1079, "\u0120Peter": 1080, "eet": 1081, "\u0120key": 1082, "\u0120scared": 1083, "\u0120wall": 1084, "\u0120N": 1085, "\u0120alien": 1086, "ired": 1087, "\u0120adventures": 1088, "\u0120game": 1089, "\u0120This": 1090, "uth": 1091, "\u0120understood": 1092, "\u0120colorful": 1093, "After": 1094, "\u0120tri": 1095, "\u0120outside": 1096, "\u0120our": 1097, "\u0120wide": 1098, "\u0120letter": 1099, "vel": 1100, "\u0120last": 1101, "\u0120thinking": 1102, "\u0120din": 1103, "\u0120kn": 1104, "dom": 1105, "by": 1106, "roup": 1107, "\u0120group": 1108, "\u0120open": 1109, "used": 1110, "\u0120picked": 1111, "\u0120team": 1112, "\u0120different": 1113, "ountain": 1114, "\u0120sweet": 1115, "\u0120climbed": 1116, "aur": 1117, "uck": 1118, "\u0120moon": 1119, "ote": 1120, "\u0120far": 1121, "\u0120trust": 1122, "osaur": 1123, "\u0120truth": 1124, "\u0120fad": 1125, "\u0120wood": 1126, "\u0120lived": 1127, "\u0120wrote": 1128, "\u0120making": 1129, "\u0120park": 1130, "\u0120fig": 1131, "ebr": 1132, "wl": 1133, "ction": 1134, "acing": 1135, "\u0120figure": 1136, "\u0120win": 1137, "\u0120island": 1138, "la": 1139, "Why": 1140, "ears": 1141, "\u0120think": 1142, "\u0120What": 1143, "\u0120weight": 1144, "ost": 1145, "ock": 1146, "\u0120conne": 1147, "\u0120plant": 1148, "\u0120followed": 1149, "\u0120G": 1150, "\u0120ball": 1151, "\u0120hill": 1152, "\u0120tou": 1153, "\u0120owl": 1154, "elebr": 1155, "\u0120song": 1156, "\u0120grand": 1157, "\u0120discovered": 1158, "reng": 1159, "\u0120amaz": 1160, "\u0120celebr": 1161, "\u0120cont": 1162, "rength": 1163, "ash": 1164, "\u0120went": 1165, "\u0120tales": 1166, "\u0120dinosaur": 1167, "\u0120hero": 1168, "imed": 1169, "\u0120strength": 1170, "\u0120jumped": 1171, "read": 1172, "light": 1173, "\u0120curious": 1174, "\u0120leaves": 1175, "day": 1176, "\u0120bloom": 1177, "It": 1178, "ids": 1179, "\u0120art": 1180, "\u0120better": 1181, "\u0120been": 1182, "\u0120waves": 1183, "\u0120led": 1184, "\u0120build": 1185, "\u0120dra": 1186, "\u0120mus": 1187, "umb": 1188, "\u0120cold": 1189, "\u0120days": 1190, "ully": 1191, "\u0120creatures": 1192, "bbit": 1193, "\u0120run": 1194, "\u0120beauty": 1195, "ught": 1196, "\u0120quick": 1197, "orn": 1198, "\u0120waiting": 1199, "ken": 1200, "\u0120su": 1201, "\u0120brighter": 1202, "ol": 1203, "\u0120everything": 1204, "ze": 1205, "\u0120rabbit": 1206, "\u0120pir": 1207, "een": 1208, "\u0120sang": 1209, "\u0120fast": 1210, "igg": 1211, "ets": 1212, "\u0120music": 1213, "\u0120anim": 1214, "\u0120children": 1215, "\u0120wished": 1216, "\u0120shimm": 1217, "\u0120pi": 1218, "\u0120turtle": 1219, "\u0120chang": 1220, "\u0120closed": 1221, "ays": 1222, "\u0120moved": 1223, "ilt": 1224, "\u0120food": 1225, "\u0120kids": 1226, "\u0120cry": 1227, "ished": 1228, "\u0120ever": 1229, "\u0120create": 1230, "fully": 1231, "\u0120often": 1232, "\u0120mountain": 1233, "\u0120toy": 1234, "\u0120ben": 1235, "\u0120twink": 1236, "mb": 1237, "\u0120dust": 1238, "\u0120fin": 1239, "\u0120fox": 1240, "\u0120echoed": 1241, "\u0120chest": 1242, "\u0120travel": 1243, "\u0120needed": 1244, "\u0120vis": 1245, "\u0120appro": 1246, "\u0120sadness": 1247, "\u0120deeper": 1248, "\u0120flying": 1249, "\u0120dist": 1250, "\u0120surprise": 1251, "\u0120after": 1252, "\u0120helped": 1253, "laimed": 1254, "\u0120shone": 1255, "\u0120those": 1256, "\u0120animals": 1257, "\u0120conf": 1258, "\u0120empt": 1259, "\u0120understand": 1260, "\u0120exclaimed": 1261, "\u0120lay": 1262, "irr": 1263, "Th": 1264, "\u0120wand": 1265, "\u0120dreamed": 1266, "\u0120should": 1267, "round": 1268, "\u0120gas": 1269, "illy": 1270, "\u0120bond": 1271, "\u0120explor": 1272, "\u0120space": 1273, "To": 1274, "rived": 1275, "\u0120pres": 1276, "\u0120remember": 1277, "\u0120agreed": 1278, "\u0120forg": 1279, "\u0120playing": 1280, "\u0120faded": 1281, "ross": 1282, "ough": 1283, "ans": 1284, "\u0120castle": 1285, "\u0120toward": 1286, "\u0120return": 1287, "\u0120squ": 1288, "ster": 1289, "\u0120swam": 1290, "\u0120lights": 1291, "\u0120sing": 1292, "idd": 1293, "ung": 1294, "\u0120funny": 1295, "ters": 1296, "ix": 1297, "\u0120poin": 1298, "\u0120sig": 1299, "\u0120cre": 1300, "\u0120lon": 1301, "\u0120pro": 1302, "\u0120landed": 1303, "\u0120sail": 1304, "eath": 1305, "\u0120glowed": 1306, "ained": 1307, "\u0120woods": 1308, "\u0120cho": 1309, "\u0120darkness": 1310, "\u0120forever": 1311, "\u0120treasures": 1312, "\u0120stronger": 1313, "row": 1314, "\u0120mother": 1315, "\u0120approached": 1316, "ones": 1317, "\u0120ent": 1318, "Finally": 1319, "ary": 1320, "\u0120fall": 1321, "\u0120floated": 1322, "\u0120another": 1323, "\u0120fairy": 1324, "cean": 1325, "\u0120imp": 1326, "\u0120gasped": 1327, "\u0120piec": 1328, "\u0120stay": 1329, "ff": 1330, "\u0120tight": 1331, "ames": 1332, "\u0120watching": 1333, "\u0120searched": 1334, "ons": 1335, "\u0120head": 1336, "\u0120boat": 1337, "\u0120sand": 1338, "ater": 1339, "\u0120changed": 1340, "\u0120father": 1341, "\u0120look": 1342, "\u0120close": 1343, "\u0120walls": 1344, "Yes": 1345, "\u0120spotted": 1346, "ins": 1347, "\u0120flick": 1348, "\u0120blue": 1349, "\u0120ocean": 1350, "uis": 1351, "\u0120sit": 1352, "\u0120turn": 1353, "\u0120racing": 1354, "umbled": 1355, "\u0120tried": 1356, "ible": 1357, "\u0120someone": 1358, "\u0120seen": 1359, "\u0120sen": 1360, "ashed": 1361, "\u0120idea": 1362, "ager": 1363, "cked": 1364, "\u0120silly": 1365, "Look": 1366, "\u0120sto": 1367, "\u0120des": 1368, "\u0120forward": 1369, "\u0120mix": 1370, "\u0120Just": 1371, "ued": 1372, "are": 1373, "eterm": 1374, "\u0120empty": 1375, "\u0120hoping": 1376, "\u0120sparkling": 1377, "eople": 1378, "ey": 1379, "\u0120say": 1380, "sw": 1381, "\u0120stones": 1382, "\u0120brightly": 1383, "\u0120forgot": 1384, "\u0120trying": 1385, "\u0120answ": 1386, "\u0120sometimes": 1387, "\u0120crow": 1388, "..": 1389, "\u0120less": 1390, "\u0120painted": 1391, "\u0120hon": 1392, "\u0120built": 1393, "Can": 1394, "fted": 1395, "\u0120hear": 1396, "ged": 1397, "\u0120villag": 1398, "\u0120U": 1399, "\u0120stre": 1400, "ase": 1401, "\u0120miss": 1402, "\u0120among": 1403, "elled": 1404, "That": 1405, "\u0120imagined": 1406, "\u0120shell": 1407, "\u0120slowly": 1408, "\u0120wandered": 1409, "where": 1410, "\u0120mat": 1411, "irror": 1412, "\u0120Luis": 1413, "\u0120right": 1414, "\u0120joined": 1415, "\u0120waved": 1416, "\u0120arrived": 1417, "ci": 1418, "\u0120sl": 1419, "\u0120villagers": 1420, "\u0120side": 1421, "Thank": 1422, "\u0120pulled": 1423, "\u0120cryst": 1424, "\u0120house": 1425, "\u0120within": 1426, "At": 1427, "\u0120dog": 1428, "\u0120kingdom": 1429, "\u0120mirror": 1430, "\u0120across": 1431, "\u0120per": 1432, "for": 1433, "\u0120faced": 1434, "ating": 1435, "ival": 1436, "\u0120fire": 1437, "\u0120gigg": 1438, "\u0120mor": 1439, "\u0120lonely": 1440, "\u0120sch": 1441, "Maybe": 1442, "\u0120quickly": 1443, "\u0120gentle": 1444, "\u0120searching": 1445, "omed": 1446, "ger": 1447, "\u0120yet": 1448, "kes": 1449, "app": 1450, "\u0120pa": 1451, "\u0120reve": 1452, "\u0120window": 1453, "act": 1454, "\u0120helping": 1455, "\u0120swirl": 1456, "\u0120hur": 1457, "osity": 1458, "\u0120whispers": 1459, "\u0120reveal": 1460, "\u0120school": 1461, "ms": 1462, "\u0120gift": 1463, "\u0120leaving": 1464, "\u0120cried": 1465, "\u0120We": 1466, "\u0120St": 1467, "terf": 1468, "\u0120safe": 1469, "\u0120Everyone": 1470, "\u0120reach": 1471, "\u0120grass": 1472, "\u0120against": 1473, "\u0120morning": 1474, "\u0120trick": 1475, "iddle": 1476, "\u0120leader": 1477, "\u0120might": 1478, "\u0120cand": 1479, "estival": 1480, "\u0120bree": 1481, "\u0120leave": 1482, "\u0120race": 1483, "\u0120bus": 1484, "\u0120fiel": 1485, "\u0120stopped": 1486, "anc": 1487, "\u0120butterf": 1488, "\u0120games": 1489, "\u0120shap": 1490, "\u0120covered": 1491, "\u0120crew": 1492, "\u0120evening": 1493, "\u0120fears": 1494, "\u0120pushed": 1495, "\u0120di": 1496, "\u0120belong": 1497, "\u0120get": 1498, "\u0120cloud": 1499, "\u0120Their": 1500, "\u0120draw": 1501, "\u0120wave": 1502, "ions": 1503, "\u0120thick": 1504, "uch": 1505, "host": 1506, "\u0120shook": 1507, "\u0120crowd": 1508, "lled": 1509, "\u0120upon": 1510, "\u0120Curious": 1511, "\u0120wings": 1512, "\u0120rushed": 1513, "joy": 1514, "\u0120knight": 1515, "\u0120ed": 1516, "Mia": 1517, "\u0120got": 1518, "\u0120sn": 1519, "\u0120ghost": 1520, "\u0120give": 1521, "\u0120On": 1522, "reen": 1523, "\u0120breeze": 1524, "\u0120much": 1525, "\u0120You": 1526, "\u0120created": 1527, "\u0120learn": 1528, "\u0120two": 1529, "\u0120beneath": 1530, "\u0120People": 1531, "\u0120seed": 1532, "\u0120There": 1533, "ening": 1534, "\u0120connection": 1535, "\u0120letters": 1536, "\u0120instead": 1537, "\u0120paint": 1538, "\u0120gently": 1539, "\u0120fro": 1540, "\u0120gone": 1541, "elc": 1542, "\u0120without": 1543, "\u0120Y": 1544, "\u0120brother": 1545, "\u0120believed": 1546, "\u0120piece": 1547, "\u0120fight": 1548, "\u0120festival": 1549, "\u0120kept": 1550, "\u0120att": 1551, "ious": 1552, "\u0120smiling": 1553, "allen": 1554, "\u0120rush": 1555, "\u0120believe": 1556, "\u0120nearby": 1557, "ination": 1558, "\u0120stumbled": 1559, "On": 1560, "\u0120dancing": 1561, "\u0120challen": 1562, "\u0120import": 1563, "\u0120Instead": 1564, "\u0120edge": 1565, "\u0120used": 1566, "\u0120below": 1567, "\u0120twinkled": 1568, "\u0120twist": 1569, "\u0120sense": 1570, "ices": 1571, "\u0120wee": 1572, "\u0120spread": 1573, "\u0120enjoy": 1574, "\u0120note": 1575, "\u0120shine": 1576, "\u0120worried": 1577, "ester": 1578, "uriosity": 1579, "pping": 1580, "\u0120along": 1581, "\u0120meet": 1582, "ib": 1583, "\u0120Soon": 1584, "ates": 1585, "\u0120realizing": 1586, "\u0120dreaming": 1587, "\u0120spl": 1588, "aked": 1589, "ines": 1590, "\u0120silence": 1591, "\u0120grandm": 1592, "\u0120talked": 1593, "\u0120surprised": 1594, "\u0120shore": 1595, "\u0120da": 1596, "\u0120aw": 1597, "anger": 1598, "\u0120sunny": 1599, "\u0120sy": 1600, "\u0120jester": 1601, "\u0120crystal": 1602, "\u0120wal": 1603, "\u0120dusty": 1604, "use": 1605, "\u0120wishes": 1606, "\u0120sounds": 1607, "\u0120finally": 1608, "\u0120explorer": 1609, "ew": 1610, "\u0120painting": 1611, "els": 1612, "\u0120thri": 1613, "\u0120pu": 1614, "\u0120thanked": 1615, "\u0120pirate": 1616, "\u0120cool": 1617, "Days": 1618, "\u0120faces": 1619, "bbed": 1620, "Just": 1621, "\u0120determ": 1622, "oken": 1623, "\u0120golden": 1624, "xc": 1625, "\u0120And": 1626, "\u0120wrong": 1627, "ever": 1628, "zz": 1629, "If": 1630, "\u0120peace": 1631, "per": 1632, "\u0120spr": 1633, "\u0120smiles": 1634, "\u0120bur": 1635, "\u0120top": 1636, "\u0120corn": 1637, "\u0120anything": 1638, "ture": 1639, "\u0120comp": 1640, "\u0120de": 1641, "\u0120sor": 1642, "\u0120contin": 1643, "\u0120spent": 1644, "eside": 1645, "\u0120seek": 1646, "\u0120surround": 1647, "arth": 1648, "\u0120thoughts": 1649, "\u0120flash": 1650, "spired": 1651, "ected": 1652, "\u0120grin": 1653, "\u0120tale": 1654, "\u0120moments": 1655, "\u0120Wh": 1656, "uture": 1657, "gy": 1658, "\u0120holding": 1659, "\u0120future": 1660, "\u0120very": 1661, "\u0120Would": 1662, "\u0120closely": 1663, "vous": 1664, "\u0120places": 1665, "ipped": 1666, "\u0120memory": 1667, "ts": 1668, "\u0120honest": 1669, "\u0120ideas": 1670, "\u0120caught": 1671, "\u0120birds": 1672, "\u0120grandmother": 1673, "\u0120pond": 1674, "ork": 1675, "tered": 1676, "ested": 1677, "bow": 1678, "\u0120beach": 1679, "\u0120af": 1680, "\u0120quest": 1681, "\u0120sist": 1682, "\u0120sho": 1683, "\u0120important": 1684, "ars": 1685, "\u0120finding": 1686, "\u0120candy": 1687, "ours": 1688, "\u0120grabbed": 1689, "ween": 1690, "mbol": 1691, "\u0120symbol": 1692, "\u0120mon": 1693, "\u0120red": 1694, "\u0120has": 1695, "\u0120filling": 1696, "Then": 1697, "alm": 1698, "\u0120After": 1699, "\u0120amazing": 1700, "ple": 1701, "\u0120prin": 1702, "\u0120everywhere": 1703, "\u0120sugg": 1704, "cient": 1705, "\u0120riddle": 1706, "\u0120longer": 1707, "\u0120carefully": 1708, "\u0120So": 1709, "oub": 1710, "\u0120ner": 1711, "\u0120rocks": 1712, "\u0120songs": 1713, "\u0120rolled": 1714, "ugged": 1715, "\u0120sitting": 1716, "\u0120gem": 1717, "\u0120creating": 1718, "\u0120stand": 1719, "\u0120eager": 1720, "head": 1721, "\u0120shi": 1722, "aking": 1723, "\u0120didn": 1724, "work": 1725, "\u0120ancient": 1726, "She": 1727, "\u0120trans": 1728, "\u0120planet": 1729, "\u0120el": 1730, "\u0120wild": 1731, "\u0120hung": 1732, "\u0120capt": 1733, "Do": 1734, "\u0120ago": 1735, "\u0120clock": 1736, "\u0120broken": 1737, "\u0120rainbow": 1738, "\u0120Th": 1739, "\u0120suggested": 1740, "anted": 1741, "\u0120At": 1742, "\u0120From": 1743, "\u0120carry": 1744, "\u0120fail": 1745, "\u0120gave": 1746, "\u0120touched": 1747, "\u0120ref": 1748, "\u0120mist": 1749, "\u0120nervous": 1750, "\u0120Yet": 1751, "\u0120amazed": 1752, "\u0120between": 1753, "alley": 1754, "\u0120picture": 1755, "\u0120unt": 1756, "\u0120pointed": 1757, "\u0120transfor": 1758, "\u0120Now": 1759, "rel": 1760, "\u0120year": 1761, "\u0120jew": 1762, "\u0120pre": 1763, "\u0120tightly": 1764, "\u0120feels": 1765, "\u0120dri": 1766, "\u0120kite": 1767, "\u0120cla": 1768, "\u0120invis": 1769, "\u0120doub": 1770, "\u0120bear": 1771, "Together": 1772, "\u0120lighter": 1773, "\u0120understanding": 1774, "\u0120clever": 1775, "\u0120guard": 1776, "acked": 1777, "\u0120act": 1778, "\u0120yelled": 1779, "From": 1780, "\u0120bloomed": 1781, "avor": 1782, "ake": 1783, "\u0120mean": 1784, "\u0120ru": 1785, "\u0120sister": 1786, "\u0120party": 1787, "\u0120surrounded": 1788, "\u0120corner": 1789, "\u0120brid": 1790, "iding": 1791, "\u0120hat": 1792, "irt": 1793, "uit": 1794, "\u0120name": 1795, "\u0120entered": 1796, "\u0120Slowly": 1797, "Is": 1798, "raid": 1799, "\u0120explored": 1800, "\u0120comes": 1801, "xcited": 1802, "irrel": 1803, "\u0120continued": 1804, "\u0120cook": 1805, "\u0120toys": 1806, "\u0120afraid": 1807, "\u0120feather": 1808, "\u0120invited": 1809, "\u0120move": 1810, "\u0120forgotten": 1811, "\u0120soared": 1812, "\u0120shimmered": 1813, "\u0120green": 1814, "\u0120chance": 1815, "\u0120blew": 1816, "\u0120loss": 1817, "\u0120valley": 1818, "\u0120write": 1819, "\u0120cra": 1820, "\u0120fade": 1821, "\u0120squirrel": 1822, "\u0120Under": 1823, "\u0120same": 1824, "\u0120noise": 1825, "\u0120danger": 1826, "fect": 1827, "\u0120running": 1828, "esc": 1829, "\u0120uni": 1830, "\u0120distance": 1831, "\u0120explained": 1832, "\u0120bre": 1833, "\u0120hig": 1834, "\u0120If": 1835, "\u0120thrill": 1836, "\u0120known": 1837, "\u0120ahead": 1838, "\u0120Sh": 1839, "\u0120finished": 1840, "\u0120po": 1841, "ergy": 1842, "\u0120listen": 1843, "any": 1844, "ray": 1845, "\u0120lives": 1846, "\u0120hurt": 1847, "\u0120energy": 1848, "irc": 1849, "ause": 1850, "\u0120tears": 1851, "\u0120friendly": 1852, "lies": 1853, "\u0120pers": 1854, "\u0120beside": 1855, "\u0120reminder": 1856, "\u0120taught": 1857, "\u0120bridge": 1858, "ief": 1859, "\u0120Finally": 1860, "\u0120resp": 1861, "Qu": 1862, "\u0120until": 1863, "\u0120don": 1864, "\u0120going": 1865, "\u0120fix": 1866, "\u0120revealing": 1867, "\u0120missed": 1868, "\u0120prot": 1869, "ateful": 1870, "\u0120shimmering": 1871, "\u0120fruit": 1872, "\u0120Am": 1873, "\u0120times": 1874, "\u0120spe": 1875, "\u0120stared": 1876, "\u0120embr": 1877, "\u0120mess": 1878, "\u0120trapped": 1879, "\u0120planned": 1880, "\u0120bit": 1881, "\u0120wra": 1882, "\u0120invisible": 1883, "\u0120watch": 1884, "\u0120butterfly": 1885, "\u0120field": 1886, "ots": 1887, "\u0120pass": 1888, "\u0120favor": 1889, "\u0120streets": 1890, "\u0120perfect": 1891, "\u0120showing": 1892, "\u0120teamwork": 1893, "\u0120choice": 1894, "\u0120tow": 1895, "\u0120cha": 1896, "\u0120sign": 1897, "ors": 1898, "\u0120frog": 1899, "\u0120stop": 1900, "\u0120Then": 1901, "\u0120seeds": 1902, "\u0120chill": 1903, "\u0120talk": 1904, "sit": 1905, "\u0120today": 1906, "\u0120refle": 1907, "\u0120hesit": 1908, "dy": 1909, "\u0120bubb": 1910, "\u0120woke": 1911, "\u0120sol": 1912, "\u0120lake": 1913, "\u0120pap": 1914, "\u0120kit": 1915, "\u0120forget": 1916, "\u0120favorite": 1917, "\u0120hours": 1918, "'m": 1919, "\u0120balloon": 1920, "bye": 1921, "\u0120confused": 1922, "\u0120mountains": 1923, "\u0120wisdom": 1924, "ire": 1925, "\u0120catch": 1926, "\u0120mark": 1927, "\u0120onto": 1928, "\u0120gaz": 1929, "\u0120queen": 1930, "\u0120sighed": 1931, "\u0120attic": 1932, "\u0120use": 1933, "ls": 1934, "\u0120pirates": 1935, "\u0120Was": 1936, "umm": 1937, "\u0120low": 1938, "arked": 1939, "\u0120visit": 1940, "\u0120rust": 1941, "\u0120blank": 1942, "\u0120giggled": 1943, "\u0120reminded": 1944, "\u0120jewels": 1945, "\u0120That": 1946, "\u0120wore": 1947, "\u0120lift": 1948, "\u0120put": 1949, "\u0120lesson": 1950, "\u0120goodbye": 1951, "\u0120matter": 1952, "ents": 1953, "\u0120tired": 1954, "\u0120jo": 1955, "\u0120nothing": 1956, "\u0120exploring": 1957, "\u0120suddenly": 1958, "\u0120grateful": 1959, "\u0120promise": 1960, "\u0120broke": 1961, "Now": 1962, "\u0120wonders": 1963, "not": 1964, "\u0120plants": 1965, "\u0120Qu": 1966, "\u0120higher": 1967, "\u0120mach": 1968, "\u0120weeks": 1969, "\u0120Bright": 1970, "\u0120chas": 1971, "\u0120spaces": 1972, "\u0120ench": 1973, "\u0120lar": 1974, "\u0120transformed": 1975, "How": 1976, "\u0120clear": 1977, "\u0120enough": 1978, "\u0120strugg": 1979, "\u0120feet": 1980, "\u0120adm": 1981, "ern": 1982, "\u0120busy": 1983, "old": 1984, "\u0120libr": 1985, "\u0120sim": 1986, "\u0120betray": 1987, "uff": 1988, "\u0120meant": 1989, "\u0120person": 1990, "\u0120placed": 1991, "vely": 1992, "\u0120fier": 1993, "\u0120rose": 1994, "\u0120bat": 1995, "elp": 1996, "\u0120rec": 1997, "ike": 1998, "kay": 1999, "\u0120jump": 2000, "less": 2001, "\u0120cannot": 2002, "\u0120touch": 2003, "pected": 2004, "\u0120pur": 2005, "ier": 2006, "\u0120telling": 2007, "\u0120hugged": 2008, "\u0120welc": 2009, "\u0120stud": 2010, "\u0120decl": 2011, "ries": 2012, "\u0120most": 2013, "\u0120table": 2014, "\u0120curiosity": 2015, "\u0120save": 2016, "\u0120pract": 2017, "\u0120these": 2018, "\u0120Today": 2019, "ont": 2020, "\u0120prep": 2021, "\u0120circ": 2022, "\u0120really": 2023, "ience": 2024, "\u0120declared": 2025, "\u0120flickered": 2026, "\u0120bravery": 2027, "\u0120paper": 2028, "\u0120sunlight": 2029, "\u0120rocket": 2030, "\u0120enchanted": 2031, "\u0120coming": 2032, "sure": 2033, "\u0120singing": 2034, "up": 2035, "\u0120calm": 2036, "ject": 2037, "\u0120stuck": 2038, "\u0120answer": 2039, "\u0120aliens": 2040, "\u0120working": 2041, "ges": 2042, "\u0120ur": 2043, "\u0120spaceship": 2044, "ibil": 2045, "\u0120guide": 2046, "\u0120library": 2047, "\u0120because": 2048, "eling": 2049, "\u0120haun": 2050, "\u0120van": 2051, "\u0120esc": 2052, "ich": 2053, "\u0120rest": 2054, "\u0120freed": 2055, "\u0120happened": 2056, "ask": 2057, "\u0120reminding": 2058, "\u0120crown": 2059, "\u0120arms": 2060, "acks": 2061, "\u0120myster": 2062, "anches": 2063, "\u0120teac": 2064, "arm": 2065, "\u0120echoing": 2066, "ress": 2067, "\u0120discover": 2068, "\u0120How": 2069, "\u0120burst": 2070, "ising": 2071, "\u0120doubt": 2072, "\u0120worlds": 2073, "\u0120well": 2074, "\u0120tast": 2075, "\u0120sailed": 2076, "\u0120mission": 2077, "\u0120branches": 2078, "elves": 2079, "\u0120pret": 2080, "ughter": 2081, "\u0120smell": 2082, "\u0120saying": 2083, "\u0120hesitated": 2084, "ometimes": 2085, "\u0120coins": 2086, "\u0120coll": 2087, "icked": 2088, "\u0120powerful": 2089, "ory": 2090, "ature": 2091, "...": 2092, "adit": 2093, "\u0120pressed": 2094, "\u0120celebrated": 2095, "antern": 2096, "Inside": 2097, "aged": 2098, "inning": 2099, "\u0120surf": 2100, "\u0120class": 2101, "\u0120My": 2102, "ump": 2103, "\u0120protect": 2104, "\u0120hit": 2105, "ope": 2106, "ighb": 2107, "\u0120glimm": 2108, "\u0120hide": 2109, "ape": 2110, "\u0120anyone": 2111, "\u0120sou": 2112, "\u0120drawn": 2113, "\u0120years": 2114, "\u0120hiding": 2115, "Oh": 2116, "\u0120lantern": 2117, "\u0120bag": 2118, "Where": 2119, "\u0120break": 2120, "\u0120growing": 2121, "\u0120talking": 2122, "\u0120offered": 2123, "\u0120twirl": 2124, "\u0120shape": 2125, "\u0120clu": 2126, "akes": 2127, "\u0120worry": 2128, "\u0120earth": 2129, "\u0120pour": 2130, "\u0120neighb": 2131, "\u0120cheer": 2132, "\u0120search": 2133, "\u0120shy": 2134, "venge": 2135, "\u0120captain": 2136, "\u0120carried": 2137, "ages": 2138, "\u0120taken": 2139, "\u0120books": 2140, "No": 2141, "ive": 2142, "\u0120distant": 2143, "ises": 2144, "selves": 2145, "\u0120does": 2146, "\u0120seas": 2147, "uly": 2148, "\u0120challenge": 2149, "noon": 2150, "\u0120afternoon": 2151, "\u0120fought": 2152, "\u0120ones": 2153, "verse": 2154, "\u0120dinosaurs": 2155, "\u0120crept": 2156, "\u0120heal": 2157, "\u0120fog": 2158, "\u0120whisper": 2159, "eeling": 2160, "cted": 2161, "\u0120teacher": 2162, "\u0120cent": 2163, "\u0120traveled": 2164, "\u0120silver": 2165, "\u0120prince": 2166, "\u0120winter": 2167, "\u0120anger": 2168, "\u0120Many": 2169, "\u0120tradit": 2170, "\u0120shapes": 2171, "\u0120paused": 2172, "\u0120Excited": 2173, "\u0120fierce": 2174, "\u0120may": 2175, "amp": 2176, "\u0120disapp": 2177, "Who": 2178, "\u0120enc": 2179, "\u0120dug": 2180, "\u0120lies": 2181, "\u0120waited": 2182, "\u0120wonderful": 2183, "\u0120hills": 2184, "\u0120truly": 2185, "\u0120greatest": 2186, "ently": 2187, "\u0120rivers": 2188, "\u0120mouse": 2189, "\u0120fing": 2190, "\u0120few": 2191, "\u0120center": 2192, "\u0120moving": 2193, "\u0120feelings": 2194, "\u0120building": 2195, "\u0120pet": 2196, "\u0120pound": 2197, "\u0120lea": 2198, "\u0120unsure": 2199, "\u0120sorrow": 2200, "\u0120word": 2201, "\u0120soc": 2202, "\u0120become": 2203, "\u0120une": 2204, "\u0120lifted": 2205, "\u0120guiding": 2206, "\u0120vanished": 2207, "\u0120leading": 2208, "\u0120twisted": 2209, "\u0120hum": 2210, "\u0120voices": 2211, "\u0120lock": 2212, "\u0120universe": 2213, "\u0120slipped": 2214, "ushing": 2215, "cess": 2216, "\u0120large": 2217, "ches": 2218, "\u0120clean": 2219, "\u0120clapped": 2220, "\u0120Maybe": 2221, "\u0120taking": 2222, "\u0120stream": 2223, "\u0120vi": 2224, "\u0120won": 2225, "\u0120tremb": 2226, "\u0120hopes": 2227, "\u0120haunted": 2228, "\u0120simple": 2229, "\u0120abs": 2230, "\u0120ang": 2231, "\u0120plans": 2232, "\u0120believing": 2233, "\u0120packed": 2234, "\u0120revenge": 2235, "\u0120determined": 2236, "\u0120flowed": 2237, "\u0120nature": 2238, "\u0120bringing": 2239, "\u0120vast": 2240, "\u0120traveler": 2241, "Wow": 2242, "\u0120ice": 2243, "\u0120cookies": 2244, "\u0120supp": 2245, "\u0120saved": 2246, "\u0120moonlight": 2247, "\u0120stick": 2248, "\u0120del": 2249, "\u0120monster": 2250, "\u0120teach": 2251, "\u0120suns": 2252, "\u0120compass": 2253, "\u0120ph": 2254, "\u0120imagination": 2255, "\u0120honesty": 2256, "\u0120couldn": 2257, "uring": 2258, "\u0120paths": 2259, "ello": 2260, "lf": 2261, "Hello": 2262, "ging": 2263, "yond": 2264, "\u0120beyond": 2265, "\u0120street": 2266, "ured": 2267, "\u0120hu": 2268, "\u0120escape": 2269, "\u0120butt": 2270, "\u0120which": 2271, "zy": 2272, "\u0120ended": 2273, "\u0120swirled": 2274, "\u0120cur": 2275, "\u0120surface": 2276, "\u0120winds": 2277, "\u0120welcomed": 2278, "\u0120happen": 2279, "\u0120cake": 2280, "\u0120int": 2281, "\u0120inspired": 2282, "sing": 2283, "ember": 2284, "\u0120freedom": 2285, "\u0120pear": 2286, "tory": 2287, "\u0120absence": 2288, "\u0120snowman": 2289, "Help": 2290, "\u0120sought": 2291, "\u0120heroes": 2292, "\u0120bigger": 2293, "\u0120line": 2294, "\u0120themselves": 2295, "\u0120tower": 2296, "ossed": 2297, "ign": 2298, "gest": 2299, "\u0120calling": 2300, "\u0120hun": 2301, "\u0120pee": 2302, "\u0120speak": 2303, "\u0120trou": 2304, "\u0120crossed": 2305, "\u0120blanket": 2306, "\u0120celebration": 2307, "hero": 2308, "Later": 2309, "\u0120eye": 2310, "\u0120foc": 2311, "ibility": 2312, "ledge": 2313, "\u0120careful": 2314, "\u0120done": 2315, "\u0120machine": 2316, "\u0120roared": 2317, "\u0120sway": 2318, "oth": 2319, "Every": 2320, "\u0120rise": 2321, "\u0120ways": 2322, "\u0120unco": 2323, "most": 2324, "\u0120z": 2325, "brant": 2326, "\u0120fingers": 2327, "\u0120summ": 2328, "\u0120brings": 2329, "\u0120bench": 2330, "ops": 2331, "\u0120front": 2332, "\u0120wash": 2333, "\u0120dawn": 2334, "\u0120quietly": 2335, "\u0120encour": 2336, "\u0120biggest": 2337, "der": 2338, "\u0120chaos": 2339, "\u0120Could": 2340, "\u0120Let": 2341, "ady": 2342, "able": 2343, "\u0120warned": 2344, "xpected": 2345, "\u0120belonged": 2346, "\u0120almost": 2347, "\u0120wishing": 2348, "\u0120celebrate": 2349, "\u0120giving": 2350, "ollow": 2351, "\u0120puzz": 2352, "\u0120doing": 2353, "\u0120snacks": 2354, "gued": 2355, "\u0120pri": 2356, "vas": 2357, "ual": 2358, "\u0120dirt": 2359, "\u0120added": 2360, "\u0120glass": 2361, "\u0120knowledge": 2362, "\u0120proble": 2363, "owed": 2364, "bo": 2365, "\u0120canvas": 2366, "red": 2367, "\u0120determination": 2368, "\u0120happily": 2369, "\u0120pat": 2370, "\u0120pages": 2371, "\u0120unl": 2372, "\u0120grant": 2373, "ounc": 2374, "\u0120eas": 2375, "\u0120pounding": 2376, "\u0120fur": 2377, "\u0120contro": 2378, "\u0120vibrant": 2379, "\u0120robots": 2380, "\u0120gri": 2381, "yard": 2382, "\u0120wid": 2383, "rust": 2384, "\u0120crashed": 2385, "\u0120towards": 2386, "\u0120Some": 2387, "elcome": 2388, "uffy": 2389, "\u0120flut": 2390, "\u0120howled": 2391, "\u0120prepared": 2392, "St": 2393, "leep": 2394, "ony": 2395, "\u0120staring": 2396, "\u0120standing": 2397, "\u0120else": 2398, "\u0120worth": 2399, "\u0120sank": 2400, "\u0120scary": 2401, "\u0120makes": 2402, "ored": 2403, "\u0120ap": 2404, "\u0120okay": 2405, "\u0120spirits": 2406, "\u0120spring": 2407, "ppy": 2408, "\u0120feast": 2409, "ivity": 2410, "\u0120poured": 2411, "ian": 2412, "amond": 2413, "\u0120Once": 2414, "\u0120spun": 2415, "\u0120walking": 2416, "\u0120cruel": 2417, "\u0120pictures": 2418, "\u0120form": 2419, "\u0120Quiet": 2420, "\u0120Dream": 2421, "Welcome": 2422, "ground": 2423, "\u0120dear": 2424, "\u0120diamond": 2425, "\u0120dim": 2426, "\u0120challenges": 2427, "\u0120sight": 2428, "\u0120bad": 2429, "\u0120embrace": 2430, "\u0120acce": 2431, "\u0120fields": 2432, "iety": 2433, "\u0120emer": 2434, "Lily": 2435, "\u0120looks": 2436, "\u0120self": 2437, "air": 2438, "\u0120angry": 2439, "\u0120ride": 2440, "\u0120wait": 2441, "\u0120wit": 2442, "\u0120respons": 2443, "\u0120vines": 2444, "\u0120faster": 2445, "\u0120remained": 2446, "\u0120having": 2447, "\u0120thing": 2448, "\u0120huge": 2449, "\u0120butterflies": 2450, "Come": 2451, "ner": 2452, "\u0120sne": 2453, "\u0120pearl": 2454, "\u0120loudly": 2455, "\u0120stayed": 2456, "\u0120bran": 2457, "\u0120awe": 2458, "\u0120presence": 2459, "\u0120branch": 2460, "\u0120super": 2461, "\u0120tricks": 2462, "ining": 2463, "owned": 2464, "\u0120leg": 2465, "\u0120creaked": 2466, "resh": 2467, "\u0120brush": 2468, "\u0120silent": 2469, "\u0120loomed": 2470, "\u0120creativity": 2471, "\u0120wrapped": 2472, "ball": 2473, "Feeling": 2474, "\u0120late": 2475, "\u0120whispering": 2476, "\u0120remembering": 2477, "\u0120hall": 2478, "\u0120walk": 2479, "\u0120gazed": 2480, "oming": 2481, "\u0120chuck": 2482, "\u0120Its": 2483, "ord": 2484, "\u0120pointing": 2485, "ats": 2486, "\u0120missing": 2487, "\u0120learning": 2488, "\u0120drawing": 2489, "\u0120ask": 2490, "\u0120shells": 2491, "\u0120swirling": 2492, "\u0120joyful": 2493, "\u0120hair": 2494, "\u0120pride": 2495, "\u0120rel": 2496, "\u0120frowned": 2497, "\u0120drew": 2498, "\u0120later": 2499, "\u0120hoped": 2500, "\u0120clearing": 2501, "\u0120rul": 2502, "Leo": 2503, "cer": 2504, "\u0120res": 2505, "\u0120oak": 2506, "\u0120swim": 2507, "\u0120choices": 2508, "\u0120buried": 2509, "\u0120pretend": 2510, "\u0120saf": 2511, "\u0120formed": 2512, "\u0120fresh": 2513, "\u0120ser": 2514, "\u0120neighbor": 2515, "\u0120liked": 2516, "\u0120tail": 2517, "\u0120using": 2518, "lowers": 2519, "\u0120shaking": 2520, "ma": 2521, "ty": 2522, "\u0120chase": 2523, "\u0120ruins": 2524, "\u0120backyard": 2525, "\u0120wear": 2526, "\u0120planted": 2527, "\u0120maybe": 2528, "\u0120Eager": 2529, "\u0120famil": 2530, "\u0120ob": 2531, "\u0120casting": 2532, "\u0120grinned": 2533, "\u0120Quietly": 2534, "Soon": 2535, "\u0120bed": 2536, "ron": 2537, "\u0120Time": 2538, "\u0120tor": 2539, "\u0120summer": 2540, "\u0120choo": 2541, "\u0120apart": 2542, "ths": 2543, "ocked": 2544, "\u0120hopped": 2545, "\u0120pot": 2546, "\u0120longed": 2547, "\u0120comm": 2548, "\u0120Shadow": 2549, "\u0120chose": 2550, "\u0120hor": 2551, "\u0120No": 2552, "\u0120spell": 2553, "anic": 2554, "\u0120floor": 2555, "\u0120fort": 2556, "\u0120floating": 2557, "\u0120betrayal": 2558, "\u0120mer": 2559, "\u0120bushes": 2560, "\u0120orange": 2561, "\u0120pulling": 2562, "And": 2563, "\u0120insp": 2564, "\u0120sent": 2565, "lph": 2566, "\u0120ign": 2567, "\u0120peeked": 2568, "\u0120emerged": 2569, "aps": 2570, "\u0120buzz": 2571, "de": 2572, "\u0120clues": 2573, "Re": 2574, "\u0120Sp": 2575, "\u0120Ch": 2576, "\u0120answers": 2577, "\u0120lands": 2578, "\u0120greed": 2579, "\u0120ring": 2580, "Dear": 2581, "rot": 2582, "\u0120snowy": 2583, "Will": 2584, "\u0120coun": 2585, "\u0120beast": 2586, "\u0120twirled": 2587, "\u0120However": 2588, "\u0120poss": 2589, "\u0120asking": 2590, "ashing": 2591, "\u0120stret": 2592, "\u0120fading": 2593, "\u0120superhero": 2594, "\u0120connected": 2595, "iff": 2596, "\u0120chased": 2597, "\u0120fluffy": 2598, "\u0120diamonds": 2599, "\u0120symbols": 2600, "\u0120visited": 2601, "\u0120control": 2602, "\u0120dolph": 2603, "\u0120whole": 2604, "\u0120bike": 2605, "\u0120lose": 2606, "\u0120Sometimes": 2607, "\u0120solve": 2608, "\u0120enjoyed": 2609, "\u0120Earth": 2610, "\u0120steal": 2611, "\u0120puppy": 2612, "\u0120shown": 2613, "\u0120chir": 2614, "\u0120failure": 2615, "\u0120weak": 2616, "\u0120tradition": 2617, "know": 2618, "iew": 2619, "pose": 2620, "\u0120son": 2621, "\u0120Be": 2622, "\u0120though": 2623, "\u0120inviting": 2624, "\u0120roots": 2625, "\u0120splashed": 2626, "\u0120Cl": 2627, "val": 2628, "epend": 2629, "\u0120par": 2630, "\u0120button": 2631, "known": 2632, "enc": 2633, "\u0120society": 2634, "\u0120chuckled": 2635, "ens": 2636, "\u0120lessons": 2637, "unch": 2638, "\u0120imagining": 2639, "\u0120Among": 2640, "\u0120ear": 2641, "\u0120louder": 2642, "inked": 2643, "sh": 2644, "\u0120artist": 2645, "ky": 2646, "\u0120thief": 2647, "\u0120finish": 2648, "hood": 2649, "attered": 2650, "\u0120drawings": 2651, "\u0120practiced": 2652, "\u0120ant": 2653, "\u0120meeting": 2654, "\u0120cher": 2655, "\u0120beginning": 2656, "orrow": 2657, "Rita": 2658, "\u0120creep": 2659, "\u0120ling": 2660, "\u0120unknown": 2661, "\u0120flicker": 2662, "\u0120reflection": 2663, "\u0120drifted": 2664, "\u0120hole": 2665, "\u0120gen": 2666, "\u0120turning": 2667, "\u0120eat": 2668, "\u0120mur": 2669, "\u0120difference": 2670, "\u0120Star": 2671, "\u0120cozy": 2672, "\u0120market": 2673, "\u0120final": 2674, "\u0120view": 2675, "\u0120why": 2676, "\u0120Did": 2677, "\u0120purpose": 2678, "ps": 2679, "\u0120exp": 2680, "\u0120bell": 2681, "\u0120hunt": 2682, "\u0120choose": 2683, "\u0120trouble": 2684, "\u0120nec": 2685, "etermined": 2686, "\u0120reaching": 2687, "found": 2688, "chen": 2689, "udd": 2690, "oc": 2691, "\u0120kitchen": 2692, "\u0120push": 2693, "\u0120white": 2694, "\u0120lean": 2695, "\u0120pink": 2696, "\u0120mixed": 2697, "\u0120bottle": 2698, "\u0120itself": 2699, "rigued": 2700, "lease": 2701, "\u0120shop": 2702, "'re": 2703, "\u0120unexpected": 2704, "\u0120val": 2705, "\u0120zoom": 2706, "\u0120dig": 2707, "\u0120recall": 2708, "Samuel": 2709, "arp": 2710, "\u0120Without": 2711, "\u0120fruits": 2712, "Are": 2713, "unn": 2714, "\u0120smart": 2715, "\u0120yourself": 2716, "\u0120neck": 2717, "\u0120tools": 2718, "\u0120yard": 2719, "\u0120focused": 2720, "\u0120skill": 2721, "book": 2722, "\u0120circle": 2723, "osing": 2724, "\u0120turns": 2725, "omes": 2726, "\u0120sib": 2727, "\u0120tug": 2728, "\u0120enjoying": 2729, "night": 2730, "\u0120newfound": 2731, "ides": 2732, "\u0120coin": 2733, "\u0120beat": 2734, "\u0120winning": 2735, "\u0120week": 2736, "\u0120sunset": 2737, "While": 2738, "\u0120clot": 2739, "ale": 2740, "\u0120fairies": 2741, "\u0120Out": 2742, "Alex": 2743, "riends": 2744, "\u0120storms": 2745, "\u0120sure": 2746, "ying": 2747, "emember": 2748, "haps": 2749, "\u0120clothes": 2750, "\u0120crab": 2751, "\u0120cor": 2752, "\u0120Ben": 2753, "\u0120wanting": 2754, "\u0120Even": 2755, "\u0120ind": 2756, "\u0120test": 2757, "\u0120bask": 2758, "\u0120inst": 2759, "\u0120Eagerly": 2760, "\u0120tu": 2761, "\u0120daughter": 2762, "\u0120trembling": 2763, "\u0120washed": 2764, "\u0120struck": 2765, "\u0120pile": 2766, "\u0120sleep": 2767, "\u0120pock": 2768, "\u0120sword": 2769, "\u0120course": 2770, "\u0120writ": 2771, "\u0120knelt": 2772, "ctop": 2773, "ctopus": 2774, "\u0120says": 2775, "\u0120blinked": 2776, "bles": 2777, "\u0120tos": 2778, "\u0120seeing": 2779, "\u0120swing": 2780, "\u0120train": 2781, "\u0120falling": 2782, "\u0120carrying": 2783, "Determined": 2784, "\u0120longing": 2785, "\u0120confid": 2786, "\u0120admired": 2787, "\u0120happening": 2788, "\u0120whe": 2789, "Al": 2790, "\u0120page": 2791, "\u0120gifts": 2792, "ext": 2793, "\u0120meadow": 2794, "\u0120awa": 2795, "Be": 2796, "\u0120lovely": 2797, "\u0120project": 2798, "\u0120nights": 2799, "\u0120prove": 2800, "\u0120Beneath": 2801, "\u0120sharp": 2802, "\u0120flood": 2803, "\u0120Curiosity": 2804, "\u0120reg": 2805, "\u0120cost": 2806, "ment": 2807, "\u0120er": 2808, "\u0120steps": 2809, "\u0120listening": 2810, "\u0120vic": 2811, "\u0120swimm": 2812, "ail": 2813, "\u0120problem": 2814, "\u0120slow": 2815, "vice": 2816, "\u0120stroke": 2817, "\u0120worries": 2818, "\u0120pieces": 2819, "\u0120shake": 2820, "\u0120battle": 2821, "nic": 2822, "\u0120planets": 2823, "\u0120gathering": 2824, "Once": 2825, "\u0120La": 2826, "\u0120crash": 2827, "\u0120princess": 2828, "\u0120mystery": 2829, "\u0120skies": 2830, "\u0120leaf": 2831, "\u0120aloud": 2832, "\u0120glanc": 2833, "\u0120skin": 2834, "rance": 2835, "ependence": 2836, "cting": 2837, "more": 2838, "\u0120rival": 2839, "\u0120live": 2840, "\u0120three": 2841, "house": 2842, "\u0120gray": 2843, "\u0120rang": 2844, "\u0120coo": 2845, "\u0120picnic": 2846, "\u0120losing": 2847, "\u0120surprises": 2848, "\u0120swayed": 2849, "\u0120anymore": 2850, "\u0120desp": 2851, "Your": 2852, "hy": 2853, "\u0120comet": 2854, "Kim": 2855, "\u0120playful": 2856, "\u0120harder": 2857, "\u0120holds": 2858, "\u0120splash": 2859, "\u0120log": 2860, "aw": 2861, "\u0120octopus": 2862, "\u0120chirped": 2863, "\u0120merma": 2864, "\u0120roar": 2865, "\u0120gems": 2866, "\u0120flashlight": 2867, "\u0120lingered": 2868, "Follow": 2869, "\u0120char": 2870, "\u0120bush": 2871, "\u0120dro": 2872, "og": 2873, "\u0120tunn": 2874, "\u0120given": 2875, "\u0120witch": 2876, "igging": 2877, "\u0120rainy": 2878, "\u0120smelled": 2879, "\u0120foot": 2880, "\u0120rep": 2881, "\u0120seeking": 2882, "\u0120glimmered": 2883, "Curious": 2884, "\u0120net": 2885, "\u0120leaned": 2886, "under": 2887, "\u0120middle": 2888, "room": 2889, "\u0120object": 2890, "\u0120notes": 2891, "\u0120marked": 2892, "ept": 2893, "\u0120ears": 2894, "col": 2895, "\u0120revealed": 2896, "\u0120suc": 2897, "\u0120dep": 2898, "\u0120wolf": 2899, "\u0120bread": 2900, "\u0120pocket": 2901, "\u0120living": 2902, "ax": 2903, "\u0120belonging": 2904, "\u0120Inspired": 2905, "\u0120honor": 2906, "\u0120basket": 2907, "\u0120unic": 2908, "ities": 2909, "izard": 2910, "\u0120chasing": 2911, "\u0120uncover": 2912, "\u0120connect": 2913, "\u0120bloss": 2914, "\u0120facing": 2915, "\u0120responsibility": 2916, "ift": 2917, "\u0120hungry": 2918, "\u0120feared": 2919, "'ll": 2920, "\u0120letting": 2921, "irtual": 2922, "ounced": 2923, "\u0120trap": 2924, "\u0120encouraged": 2925, "\u0120cover": 2926, "\u0120vent": 2927, "\u0120fallen": 2928, "\u0120fighting": 2929, "\u0120petals": 2930, "\u0120knows": 2931, "\u0120widened": 2932, "\u0120virtual": 2933, "\u0120tom": 2934, "board": 2935, "\u0120lighting": 2936, "\u0120taste": 2937, "\u0120entrance": 2938, "\u0120rode": 2939, "izon": 2940, "\u0120min": 2941, "\u0120shel": 2942, "ressed": 2943, "ations": 2944, "\u0120ann": 2945, "\u0120message": 2946, "\u0120stage": 2947, "\u0120yell": 2948, "\u0120nice": 2949, "colate": 2950, "\u0120crack": 2951, "\u0120poet": 2952, "\u0120Joy": 2953, "These": 2954, "\u0120swimming": 2955, "\u0120hopeful": 2956, "\u0120send": 2957, "ived": 2958, "gg": 2959, "\u0120fountain": 2960, "\u0120commun": 2961, "\u0120goal": 2962, "\u0120V": 2963, "\u0120wizard": 2964, "upted": 2965, "\u0120twinkle": 2966, "\u0120failed": 2967, "alf": 2968, "\u0120Co": 2969, "\u0120dolphin": 2970, "\u0120delight": 2971, "\u0120handed": 2972, "\u0120pushing": 2973, "oney": 2974, "\u0120hol": 2975, "eal": 2976, "\u0120Friends": 2977, "\u0120pul": 2978, "\u0120horizon": 2979, "\u0120Shadows": 2980, "\u0120alley": 2981, "\u0120Happ": 2982, "\u0120cross": 2983, "\u0120stretched": 2984, "ales": 2985, "\u0120action": 2986, "cle": 2987, "\u0120celebrating": 2988, "Remember": 2989, "\u0120Laughter": 2990, "\u0120questions": 2991, "\u0120clo": 2992, "\u0120ventured": 2993, "\u0120ve": 2994, "ery": 2995, "\u0120jokes": 2996, "\u0120chocolate": 2997, "\u0120hug": 2998, "\u0120smo": 2999, "\u0120soul": 3000, "bu": 3001, "\u0120cut": 3002, "\u0120twinkling": 3003, "\u0120holid": 3004, "\u0120Through": 3005, "iddles": 3006, "\u0120worn": 3007, "\u0120For": 3008, "\u0120clue": 3009, "Did": 3010, "\u0120awaited": 3011, "eds": 3012, "ipping": 3013, "ife": 3014, "\u0120unicorn": 3015, "\u0120answered": 3016, "\u0120Sil": 3017, "\u0120replaced": 3018, "\u0120means": 3019, "\u0120reading": 3020, "dd": 3021, "\u0120homes": 3022, "\u0120flour": 3023, "\u0120zoomed": 3024, "\u0120independence": 3025, "\u0120support": 3026, "\u0120Z": 3027, "\u0120riches": 3028, "\u0120depths": 3029, "Each": 3030, "\u0120bubbling": 3031, "\u0120forgetting": 3032, "\u0120cared": 3033, "\u0120mud": 3034, "\u0120easy": 3035, "\u0120scr": 3036, "\u0120base": 3037, "\u0120darkest": 3038, "\u0120lines": 3039, "\u0120guided": 3040, "\u0120phot": 3041, "\u0120mar": 3042, "\u0120deer": 3043, "\u0120mermaid": 3044, "ndering": 3045, "\u0120neckl": 3046, "\u0120accept": 3047, "\u0120While": 3048, "elo": 3049, "iest": 3050, "\u0120Amid": 3051, "outh": 3052, "Don": 3053, "\u0120riddles": 3054, "\u0120shr": 3055, "\u0120scream": 3056, "\u0120sorry": 3057, "\u0120shot": 3058, "\u0120roo": 3059, "\u0120apple": 3060, "\u0120leap": 3061, "\u0120hurried": 3062, "\u0120warning": 3063, "fort": 3064, "\u0120luck": 3065, "\u0120digging": 3066, "\u0120shoot": 3067, "Excited": 3068, "\u0120harm": 3069, "rents": 3070, "\u0120cliff": 3071, "\u0120prize": 3072, "\u0120Flowers": 3073, "\u0120shift": 3074, "\u0120screen": 3075, "\u0120necklace": 3076, "\u0120mattered": 3077, "\u0120orb": 3078, "ef": 3079, "\u0120bar": 3080, "illed": 3081, "\u0120player": 3082, "\u0120Color": 3083, "\u0120erupted": 3084, "\u0120sees": 3085, "\u0120takes": 3086, "\u0120smooth": 3087, "ased": 3088, "iar": 3089, "\u0120planning": 3090, "\u0120passing": 3091, "\u0120sket": 3092, "\u0120contest": 3093, "\u0120victory": 3094, "Years": 3095, "\u0120tick": 3096, "\u0120second": 3097, "\u0120job": 3098, "\u0120cafe": 3099, "\u0120history": 3100, "\u0120villain": 3101, "\u0120treats": 3102, "\u0120towns": 3103, "\u0120coral": 3104, "\u0120present": 3105, "\u0120lady": 3106, "\u0120crystals": 3107, "\u0120regret": 3108, "\u0120half": 3109, "\u0120locket": 3110, "\u0120finds": 3111, "\u0120community": 3112, "\u0120jumping": 3113, "\u0120hot": 3114, "apped": 3115, "\u0120decor": 3116, "Sh": 3117, "\u0120comfort": 3118, "\u0120Near": 3119, "\u0120spine": 3120, "\u0120cheering": 3121, "\u0120fis": 3122, "Next": 3123, "\u0120caring": 3124, "\u0120roll": 3125, "tering": 3126, "\u0120rusty": 3127, "There": 3128, "vers": 3129, "\u0120thrived": 3130, "\u0120grown": 3131, "\u0120gener": 3132, "\u0120cheerful": 3133, "\u0120melo": 3134, "\u0120snowball": 3135, "\u0120mural": 3136, "\u0120road": 3137, "\u0120enter": 3138, "\u0120fit": 3139, "\u0120threw": 3140, "\u0120creeping": 3141, "Time": 3142, "\u0120becoming": 3143, "\u0120echoes": 3144, "\u0120sparked": 3145, "\u0120melt": 3146, "\u0120pick": 3147, "\u0120during": 3148, "\u0120Hope": 3149, "\u0120scent": 3150, "ension": 3151, "Of": 3152, "\u0120discovery": 3153, "\u0120dashed": 3154, "\u0120uniqu": 3155, "\u0120parrot": 3156, "\u0120Light": 3157, "\u0120watered": 3158, "\u0120soaring": 3159, "unk": 3160, "\u0120cheers": 3161, "\u0120buzzed": 3162, "ecting": 3163, "\u0120tossed": 3164, "\u0120knights": 3165, "\u0120Love": 3166, "\u0120Fl": 3167, "\u0120explorers": 3168, "\u0120Why": 3169, "\u0120notebook": 3170, "\u0120Spark": 3171, "\u0120pad": 3172, "\u0120needs": 3173, "fl": 3174, "\u0120steep": 3175, "\u0120por": 3176, "\u0120deeply": 3177, "\u0120flickering": 3178, "\u0120egg": 3179, "anged": 3180, "\u0120eagerly": 3181, "\u0120raised": 3182, "\u0120cream": 3183, "Hey": 3184, "tles": 3185, "\u0120holiday": 3186, "ding": 3187, "\u0120flashed": 3188, "\u0120porch": 3189, "\u0120deser": 3190, "\u0120bal": 3191, "\u0120chair": 3192, "\u0120cup": 3193, "\u0120shifted": 3194, "cross": 3195, "\u0120Keep": 3196, "father": 3197, "ickly": 3198, "\u0120fate": 3199, "\u0120endless": 3200, "\u0120nest": 3201, "\u0120flooded": 3202, "\u0120Tre": 3203, "\u0120getting": 3204, "\u0120port": 3205, "\u0120question": 3206, "\u0120stranger": 3207, "olk": 3208, "\u0120rich": 3209, "\u0120drink": 3210, "\u0120knocked": 3211, "lings": 3212, "\u0120surge": 3213, "\u0120rece": 3214, "\u0120recalled": 3215, "\u0120soar": 3216, "\u0120thank": 3217, "oring": 3218, "\u0120keeping": 3219, "ention": 3220, "\u0120trail": 3221, "\u0120mysterious": 3222, "\u0120relief": 3223, "umn": 3224, "\u0120urged": 3225, "\u0120disappeared": 3226, "\u0120tension": 3227, "Sometimes": 3228, "\u0120wondering": 3229, "\u0120trip": 3230, "\u0120metal": 3231, "\u0120Stars": 3232, "\u0120scrat": 3233, "away": 3234, "\u0120friendships": 3235, "\u0120wearing": 3236, "\u0120anywhere": 3237, "\u0120firef": 3238, "icy": 3239, "utumn": 3240, "\u0120soil": 3241, "\u0120sticks": 3242, "\u0120thinks": 3243, "\u0120trusted": 3244, "\u0120such": 3245, "folk": 3246, "\u0120tomorrow": 3247, "\u0120unique": 3248, "\u0120overc": 3249, "\u0120float": 3250, "\u0120shaped": 3251, "\u0120Outside": 3252, "erhaps": 3253, "\u0120minut": 3254, "icking": 3255, "\u0120panic": 3256, "\u0120scales": 3257, "\u0120Or": 3258, "\u0120gre": 3259, "\u0120mistakes": 3260, "\u0120Trust": 3261, "\u0120guardian": 3262, "ety": 3263, "\u0120leaped": 3264, "\u0120odd": 3265, "\u0120leads": 3266, "\u0120pondered": 3267, "\u0120shooting": 3268, "\u0120tunnel": 3269, "\u0120faraway": 3270, "\u0120giggling": 3271, "\u0120townsfolk": 3272, "\u0120unity": 3273, "\u0120fool": 3274, "\u0120stom": 3275, "fall": 3276, "\u0120grandfather": 3277, "\u0120doors": 3278, "\u0120excitedly": 3279, "\u0120splashing": 3280, "\u0120feathers": 3281, "\u0120torn": 3282, "aving": 3283, "\u0120ins": 3284, "\u0120begin": 3285, "\u0120setting": 3286, "\u0120invent": 3287, "\u0120By": 3288, "\u0120sneak": 3289, "oyal": 3290, "\u0120tied": 3291, "\u0120wooden": 3292, "\u0120siblings": 3293, "Okay": 3294, "\u0120dipped": 3295, "\u0120lonel": 3296, "\u0120blooming": 3297, "\u0120whatever": 3298, "\u0120square": 3299, "\u0120maps": 3300, "we": 3301, "\u0120familiar": 3302, "\u0120rum": 3303, "\u0120exch": 3304, "\u0120eff": 3305, "\u0120perfor": 3306, "\u0120buildings": 3307, "\u0120Heart": 3308, "\u0120thunder": 3309, "\u0120bite": 3310, "flakes": 3311, "\u0120mine": 3312, "\u0120safety": 3313, "\u0120wants": 3314, "\u0120pudd": 3315, "\u0120myself": 3316, "\u0120Gl": 3317, "\u0120mistake": 3318, "\u0120cons": 3319, "\u0120shelf": 3320, "\u0120rising": 3321, "bs": 3322, "\u0120order": 3323, "\u0120planting": 3324, "\u0120skills": 3325, "\u0120clut": 3326, "ows": 3327, "\u0120steady": 3328, "\u0120growth": 3329, "bble": 3330, "\u0120firm": 3331, "\u0120balloons": 3332, "emories": 3333, "\u0120smoke": 3334, "\u0120collect": 3335, "irred": 3336, "\u0120ord": 3337, "\u0120loneliness": 3338, "\u0120cherish": 3339, "ude": 3340, "\u0120practice": 3341, "iliz": 3342, "\u0120swept": 3343, "trigued": 3344, "\u0120throw": 3345, "\u0120Across": 3346, "\u0120creation": 3347, "\u0120jung": 3348, "\u0120Soft": 3349, "\u0120emptiness": 3350, "\u0120Yes": 3351, "\u0120dove": 3352, "\u0120despair": 3353, "oll": 3354, "\u0120bark": 3355, "\u0120scen": 3356, "\u0120bak": 3357, "water": 3358, "\u0120waving": 3359, "\u0120giggle": 3360, "\u0120ast": 3361, "\u0120unlock": 3362, "\u0120parents": 3363, "\u0120desk": 3364, "\u0120shocked": 3365, "\u0120portal": 3366, "Back": 3367, "iant": 3368, "\u0120souls": 3369, "\u0120scare": 3370, "\u0120childhood": 3371, "\u0120charm": 3372, "\u0120sigh": 3373, "\u0120jungle": 3374, "\u0120underground": 3375, "\u0120instant": 3376, "pted": 3377, "\u0120promising": 3378, "\u0120guilt": 3379, "ooking": 3380, "\u0120bold": 3381, "\u0120rhy": 3382, "\u0120effort": 3383, "\u0120beamed": 3384, "ere": 3385, "Lena": 3386, "\u0120spinning": 3387, "\u0120autumn": 3388, "\u0120compl": 3389, "iviliz": 3390, "\u0120dad": 3391, "\u0120civiliz": 3392, "arrow": 3393, "\u0120seem": 3394, "cast": 3395, "\u0120betrayed": 3396, "\u0120renew": 3397, "\u0120inspir": 3398, "\u0120trembled": 3399, "\u0120studied": 3400, "ually": 3401, "\u0120ticked": 3402, "\u0120proudly": 3403, "\u0120dest": 3404, "\u0120All": 3405, "\u0120locked": 3406, "\u0120circles": 3407, "itted": 3408, "\u0120united": 3409, "\u0120kitten": 3410, "ready": 3411, "\u0120older": 3412, "\u0120tough": 3413, "\u0120shiver": 3414, "\u0120climbing": 3415, "\u0120already": 3416, "using": 3417, "\u0120defe": 3418, "\u0120purple": 3419, "Could": 3420, "\u0120writing": 3421, "\u0120stat": 3422, "\u0120shoes": 3423, "mer": 3424, "ocking": 3425, "\u0120students": 3426, "\u0120written": 3427, "\u0120players": 3428, "\u0120apples": 3429, "onf": 3430, "\u0120Memories": 3431, "\u0120glit": 3432, "orm": 3433, "ittle": 3434, "aster": 3435, "An": 3436, "\u0120mixing": 3437, "pe": 3438, "\u0120ate": 3439, "\u0120ir": 3440, "ically": 3441, "\u0120unf": 3442, "ource": 3443, "\u0120chee": 3444, "\u0120Who": 3445, "\u0120landing": 3446, "\u0120weeds": 3447, "\u0120machines": 3448, "\u0120urging": 3449, "\u0120Beside": 3450, "\u0120Along": 3451, "\u0120ble": 3452, "\u0120flapped": 3453, "\u0120joke": 3454, "\u0120ached": 3455, "\u0120desire": 3456, "\u0120scar": 3457, "\u0120Le": 3458, "\u0120struggled": 3459, "\u0120dangerous": 3460, "\u0120stepping": 3461, "Alice": 3462, "\u0120Tw": 3463, "\u0120inc": 3464, "\u0120lion": 3465, "\u0120ghosts": 3466, "See": 3467, "\u0120received": 3468, "\u0120grace": 3469, "\u0120sailor": 3470, "His": 3471, "\u0120uncovered": 3472, "\u0120ill": 3473, "\u0120signs": 3474, "\u0120hats": 3475, "\u0120Days": 3476, "\u0120wisely": 3477, "\u0120images": 3478, "\u0120rhyth": 3479, "\u0120playground": 3480, "\u0120embraced": 3481, "mates": 3482, "aint": 3483, "\u0120renewed": 3484, "\u0120valu": 3485, "\u0120shines": 3486, "\u0120delic": 3487, "\u0120crying": 3488, "\u0120serious": 3489, "esp": 3490, "\u0120spreading": 3491, "\u0120Quickly": 3492, "\u0120drift": 3493, "\u0120yellow": 3494, "\u0120round": 3495, "\u0120exper": 3496, "\u0120trunk": 3497, "\u0120breaking": 3498, "\u0120pen": 3499, "\u0120seasons": 3500, "\u0120following": 3501, "ize": 3502, "\u0120guarded": 3503, "\u0120pretty": 3504, "\u0120Little": 3505, "key": 3506, "\u0120attention": 3507, "\u0120rhythm": 3508, "\u0120parts": 3509, "\u0120bake": 3510, "\u0120item": 3511, "\u0120invite": 3512, "aves": 3513, "\u0120exchanged": 3514, "imid": 3515, "\u0120pie": 3516, "eted": 3517, "Jean": 3518, "\u0120Gently": 3519, "\u0120Dark": 3520, "\u0120lifting": 3521, "\u0120traditions": 3522, "izz": 3523, "\u0120wag": 3524, "\u0120doubts": 3525, "\u0120coat": 3526, "\u0120families": 3527, "\u0120lur": 3528, "usion": 3529, "vest": 3530, "\u0120ripp": 3531, "\u0120valuable": 3532, "\u0120dropped": 3533, "\u0120minutes": 3534, "\u0120raged": 3535, "\u0120civilization": 3536, "So": 3537, "\u0120expected": 3538, "\u0120rac": 3539, "\u0120success": 3540, "\u0120happier": 3541, "\u0120plot": 3542, "\u0120puzzle": 3543, "\u0120minds": 3544, "\u0120ache": 3545, "ized": 3546, "\u0120club": 3547, "\u0120shined": 3548, "\u0120dress": 3549, "\u0120ris": 3550, "\u0120lunch": 3551, "alax": 3552, "ains": 3553, "\u0120enem": 3554, "\u0120balance": 3555, "\u0120Can": 3556, "\u0120reality": 3557, "Please": 3558, "\u0120vowed": 3559, "\u0120reflecting": 3560, "\u0120money": 3561, "\u0120beating": 3562, "\u0120teaching": 3563, "\u0120melody": 3564, "\u0120check": 3565, "\u0120granted": 3566, "\u0120accepted": 3567, "\u0120underwater": 3568, "\u0120hour": 3569, "inary": 3570, "\u0120roamed": 3571, "\u0120pang": 3572, "\u0120shelter": 3573, "\u0120rivalry": 3574, "ano": 3575, "\u0120guess": 3576, "\u0120legs": 3577, "\u0120astron": 3578, "itude": 3579, "\u0120notice": 3580, "\u0120aud": 3581, "fish": 3582, "\u0120puzzled": 3583, "\u0120discovering": 3584, "\u0120device": 3585, "oned": 3586, "\u0120pil": 3587, "unched": 3588, "\u0120cracked": 3589, "\u0120waters": 3590, "\u0120boxes": 3591, "\u0120inspire": 3592, "\u0120blend": 3593, "\u0120Perhaps": 3594, "ustling": 3595, "\u0120grows": 3596, "\u0120weaving": 3597, "\u0120froze": 3598, "\u0120powers": 3599, "ires": 3600, "\u0120snowflakes": 3601, "cious": 3602, "\u0120short": 3603, "\u0120astronaut": 3604, "\u0120Fear": 3605, "\u0120narrow": 3606, "\u0120mid": 3607, "\u0120sandcast": 3608, "\u0120statue": 3609, "\u0120troll": 3610, "\u0120bubble": 3611, "\u0120tune": 3612, "ended": 3613, "\u0120Gu": 3614, "\u0120wrapping": 3615, "\u0120acorn": 3616, "\u0120paintings": 3617, "\u0120lined": 3618, "\u0120overcome": 3619, "\u0120galax": 3620, "\u0120blossomed": 3621, "\u0120ber": 3622, "\u0120announced": 3623, "\u0120Calm": 3624, "\u0120aside": 3625, "\u0120possible": 3626, "\u0120younger": 3627, "tled": 3628, "\u0120flight": 3629, "\u0120darker": 3630, "\u0120gardens": 3631, "Stay": 3632, "\u0120neighbors": 3633, "\u0120rules": 3634, "umpy": 3635, "encil": 3636, "\u0120encourag": 3637, "\u0120gripped": 3638, "ition": 3639, "\u0120collected": 3640, "\u0120cloak": 3641, "\u0120distr": 3642, "\u0120bonds": 3643, "\u0120swell": 3644, "apping": 3645, "\u0120forms": 3646, "\u0120further": 3647, "\u0120struggle": 3648, "\u0120member": 3649, "thday": 3650, "izing": 3651, "\u0120soccer": 3652, "\u0120wet": 3653, "\u0120chat": 3654, "\u0120irony": 3655, "\u0120whale": 3656, "\u0120pretending": 3657, "but": 3658, "\u0120backp": 3659, "\u0120moves": 3660, "\u0120safely": 3661, "\u0120body": 3662, "\u0120Amidst": 3663, "\u0120changing": 3664, "\u0120stomach": 3665, "unny": 3666, "\u0120mouth": 3667, "ient": 3668, "\u0120passion": 3669, "\u0120giants": 3670, "\u0120audience": 3671, "\u0120sparkles": 3672, "\u0120tells": 3673, "\u0120Pl": 3674, "Her": 3675, "step": 3676, "\u0120nose": 3677, "\u0120dragons": 3678, "agle": 3679, "\u0120popped": 3680, "\u0120forth": 3681, "\u0120bustling": 3682, "iously": 3683, "\u0120pencil": 3684, "\u0120season": 3685, "\u0120Though": 3686, "\u0120gust": 3687, "bin": 3688, "\u0120tasted": 3689, "\u0120cookie": 3690, "angers": 3691, "\u0120kites": 3692, "\u0120roof": 3693, "\u0120waterfall": 3694, "Jose": 3695, "\u0120drop": 3696, "\u0120screamed": 3697, "\u0120famous": 3698, "\u0120dull": 3699, "Inspired": 3700, "\u0120vision": 3701, "\u0120padd": 3702, "ese": 3703, "olen": 3704, "\u0120talent": 3705, "\u0120stolen": 3706, "coon": 3707, "\u0120sailing": 3708, "\u0120bags": 3709, "\u0120scattered": 3710, "\u0120shoulders": 3711, "\u0120desc": 3712, "\u0120brightened": 3713, "\u0120bee": 3714, "\u0120arg": 3715, "\u0120cabin": 3716, "\u0120sandw": 3717, "\u0120arm": 3718, "\u0120sque": 3719, "\u0120warri": 3720, "ider": 3721, "Only": 3722, "\u0120flowing": 3723, "\u0120ped": 3724, "\u0120men": 3725, "\u0120Help": 3726, "\u0120picking": 3727, "\u0120meaning": 3728, "elly": 3729, "\u0120dive": 3730, "\u0120lying": 3731, "\u0120tonight": 3732, "Before": 3733, "\u0120importance": 3734, "Without": 3735, "\u0120birthday": 3736, "\u0120dressed": 3737, "\u0120Timid": 3738, "ades": 3739, "\u0120legend": 3740, "\u0120craw": 3741, "lls": 3742, "\u0120lanterns": 3743, "\u0120dod": 3744, "\u0120scene": 3745, "Not": 3746, "ilted": 3747, "\u0120unfold": 3748, "tom": 3749, "Emmanuel": 3750, "\u0120struggling": 3751, "\u0120figures": 3752, "\u0120bravely": 3753, "\u0120disappoin": 3754, "\u0120glade": 3755, "\u0120exciting": 3756, "\u0120bottom": 3757, "\u0120fixed": 3758, "\u0120sparkle": 3759, "\u0120point": 3760, "\u0120Gold": 3761, "ring": 3762, "\u0120Rain": 3763, "oot": 3764, "\u0120threat": 3765, "\u0120gn": 3766, "\u0120eagle": 3767, "\u0120disappear": 3768, "\u0120slipping": 3769, "\u0120Bl": 3770, "ait": 3771, "\u0120crumb": 3772, "\u0120compet": 3773, "\u0120sock": 3774, "nings": 3775, "\u0120taller": 3776, "\u0120confident": 3777, "\u0120cheese": 3778, "\u0120Intrigued": 3779, "\u0120dire": 3780, "\u0120scratched": 3781, "asy": 3782, "\u0120baked": 3783, "\u0120shows": 3784, "\u0120black": 3785, "\u0120grinning": 3786, "\u0120monkey": 3787, "\u0120sorce": 3788, "\u0120exist": 3789, "\u0120kicked": 3790, "eeks": 3791, "\u0120walks": 3792, "\u0120owner": 3793, "\u0120rabbits": 3794, "\u0120struggles": 3795, "\u0120bubbles": 3796, "\u0120glimmer": 3797, "\u0120wandering": 3798, "chie": 3799, "\u0120event": 3800, "\u0120patience": 3801, "\u0120tripped": 3802, "\u0120Clouds": 3803, "\u0120delicious": 3804, "\u0120visions": 3805, "\u0120Here": 3806, "\u0120urge": 3807, "\u0120unlike": 3808, "\u0120blocking": 3809, "\u0120bri": 3810, "\u0120price": 3811, "\u0120elder": 3812, "cher": 3813, "\u0120problems": 3814, "\u0120gate": 3815, "\u0120sled": 3816, "itting": 3817, "angled": 3818, "\u0120transform": 3819, "hant": 3820, "Instead": 3821, "\u0120impress": 3822, "\u0120caves": 3823, "Maria": 3824, "\u0120crawled": 3825, "\u0120respect": 3826, "\u0120peak": 3827, "\u0120tallest": 3828, "rated": 3829, "\u0120swung": 3830, "never": 3831, "\u0120admitted": 3832, "eld": 3833, "\u0120Conf": 3834, "\u0120lie": 3835, "\u0120keys": 3836, "\u0120wasn": 3837, "\u0120backpack": 3838, "icing": 3839, "athering": 3840, "\u0120Whisp": 3841, "\u0120raccoon": 3842, "\u0120outs": 3843, "\u0120rustling": 3844, "\u0120Sw": 3845, "\u0120rare": 3846, "\u0120Guard": 3847, "\u0120brew": 3848, "\u0120Myster": 3849, "\u0120Up": 3850, "\u0120string": 3851, "\u0120rocky": 3852, "lee": 3853, "Weeks": 3854, "\u0120mask": 3855, "\u0120dinner": 3856, "toise": 3857, "\u0120jar": 3858, "\u0120Dreams": 3859, "\u0120shock": 3860, "\u0120pulsed": 3861, "\u0120brushed": 3862, "\u0120faint": 3863, "\u0120fireflies": 3864, "\u0120firew": 3865, "\u0120precious": 3866, "\u0120det": 3867, "\u0120Panic": 3868, "\u0120speed": 3869, "steps": 3870, "ilience": 3871, "zen": 3872, "\u0120forming": 3873, "\u0120Moon": 3874, "\u0120shrugged": 3875, "\u0120dared": 3876, "\u0120peered": 3877, "ibilities": 3878, "\u0120asks": 3879, "\u0120meal": 3880, "hine": 3881, "\u0120laughs": 3882, "gn": 3883, "\u0120Before": 3884, "\u0120kis": 3885, "amb": 3886, "\u0120card": 3887, "\u0120jelly": 3888, "\u0120har": 3889, "\u0120scarf": 3890, "\u0120halls": 3891, "\u0120tortoise": 3892, "entle": 3893, "\u0120beings": 3894, "lier": 3895, "\u0120desert": 3896, "\u0120ruled": 3897, "\u0120greeted": 3898, "\u0120Gentle": 3899, "\u0120berries": 3900, "\u0120skate": 3901, "\u0120blooms": 3902, "cest": 3903, "\u0120duck": 3904, "\u0120frag": 3905, "\u0120frozen": 3906, "flowers": 3907, "\u0120resting": 3908, "arted": 3909, "\u0120lot": 3910, "\u0120snail": 3911, "\u0120fluttered": 3912, "\u0120grab": 3913, "\u0120stormy": 3914, "\u0120winding": 3915, "\u0120beam": 3916, "osen": 3917, "\u0120blow": 3918, "elesc": 3919, "\u0120ter": 3920, "\u0120eng": 3921, "aped": 3922, "ship": 3923, "ronically": 3924, "\u0120jewel": 3925, "Here": 3926, "\u0120Exc": 3927, "off": 3928, "\u0120hang": 3929, "\u0120sprout": 3930, "\u0120Bel": 3931, "\u0120stirred": 3932, "arsh": 3933, "ws": 3934, "\u0120cou": 3935, "\u0120reader": 3936, "\u0120logic": 3937, "\u0120bow": 3938, "\u0120swelled": 3939, "\u0120sunshine": 3940, "\u0120warmed": 3941, "However": 3942, "\u0120chosen": 3943, "ces": 3944, "\u0120ple": 3945, "ping": 3946, "\u0120tricky": 3947, "elescope": 3948, "\u0120frown": 3949, "\u0120rushing": 3950, "\u0120sadly": 3951, "\u0120buttons": 3952, "the": 3953, "\u0120ban": 3954, "\u0120tucked": 3955, "\u0120uneasy": 3956, "\u0120sly": 3957, "\u0120thrilled": 3958, "\u0120joked": 3959, "\u0120flames": 3960, "Join": 3961, "\u0120tear": 3962, "\u0120camp": 3963, "\u0120gazing": 3964, "\u0120Feeling": 3965, "\u0120Other": 3966, "\u0120heads": 3967, "Wait": 3968, "aded": 3969, "bank": 3970, "\u0120blink": 3971, "\u0120squeaked": 3972, "\u0120thr": 3973, "\u0120rough": 3974, "\u0120task": 3975, "umin": 3976, "speople": 3977, "aled": 3978, "\u0120reflected": 3979, "\u0120townspeople": 3980, "\u0120chick": 3981, "\u0120towers": 3982, "hest": 3983, "\u0120stole": 3984, "\u0120sending": 3985, "\u0120cleared": 3986, "\u0120telescope": 3987, "\u0120bare": 3988, "\u0120Follow": 3989, "\u0120rainbows": 3990, "\u0120complet": 3991, "allow": 3992, "\u0120sudden": 3993, "\u0120Trees": 3994, "\u0120harmony": 3995, "seen": 3996, "\u0120conqu": 3997, "\u0120brightest": 3998, "peration": 3999, "\u0120possibilities": 4000, "\u0120decide": 4001, "ners": 4002, "\u0120reef": 4003, "\u0120match": 4004, "\u0120Gr": 4005, "\u0120gaze": 4006, "\u0120charac": 4007, "\u0120tem": 4008, "\u0120frogs": 4009, "\u0120Tr": 4010, "atitude": 4011, "\u0120burden": 4012, "ict": 4013, "\u0120Tears": 4014, "\u0120actions": 4015, "int": 4016, "\u0120confidence": 4017, "\u0120pump": 4018, "\u0120forests": 4019, "\u0120gratitude": 4020, "\u0120seashe": 4021, "ouses": 4022, "Trust": 4023, "\u0120whist": 4024, "\u0120neighborhood": 4025, "\u0120keeper": 4026, "\u0120shimmer": 4027, "\u0120express": 4028, "onight": 4029, "\u0120ordinary": 4030, "\u0120responsible": 4031, "ooped": 4032, "\u0120greater": 4033, "\u0120glimmering": 4034, "\u0120sal": 4035, "\u0120Bra": 4036, "asks": 4037, "\u0120inspiration": 4038, "ical": 4039, "Taking": 4040, "Today": 4041, "buried": 4042, "\u0120trusting": 4043, "\u0120direction": 4044, "indness": 4045, "\u0120spin": 4046, "\u0120resilience": 4047, "\u0120curse": 4048, "Would": 4049, "\u0120intrigued": 4050, "ecause": 4051, "\u0120baker": 4052, "\u0120cheeks": 4053, "\u0120thread": 4054, "Hold": 4055, "\u0120ringing": 4056, "\u0120early": 4057, "\u0120barked": 4058, "ips": 4059, "ians": 4060, "anding": 4061, "\u0120bubbled": 4062, "urpr": 4063, "\u0120spilled": 4064, "\u0120ants": 4065, "orks": 4066, "\u0120paddled": 4067, "\u0120stealing": 4068, "\u0120jud": 4069, "\u0120smaller": 4070, "airs": 4071, "\u0120pretended": 4072, "bbled": 4073, "erest": 4074, "\u0120Should": 4075, "weed": 4076, "\u0120fre": 4077, "\u0120opens": 4078, "izza": 4079, "\u0120riverbank": 4080, "\u0120rebu": 4081, "\u0120footsteps": 4082, "\u0120hurry": 4083, "\u0120solved": 4084, "uts": 4085, "\u0120sprink": 4086, "\u0120unseen": 4087, "\u0120seaweed": 4088, "\u0120sandcastle": 4089, "\u0120pal": 4090, "ech": 4091, "\u0120cleaning": 4092, "\u0120Long": 4093, "\u0120rolling": 4094, "<|endoftext|>": 4095, "<|mdm_mask|>": 4096}